{
    "<|endoftext|>": 0,
    "\u0000": 1,
    "\u0001": 2,
    "\u0002": 3,
    "\u0003": 4,
    "\u0004": 5,
    "\u0005": 6,
    "\u0006": 7,
    "\u0007": 8,
    "\b": 9,
    "\t": 10,
    "\n": 11,
    "\u000b": 12,
    "\f": 13,
    "\r": 14,
    "\u000e": 15,
    "\u000f": 16,
    "\u0010": 17,
    "\u0011": 18,
    "\u0012": 19,
    "\u0013": 20,
    "\u0014": 21,
    "\u0015": 22,
    "\u0016": 23,
    "\u0017": 24,
    "\u0018": 25,
    "\u0019": 26,
    "\u001a": 27,
    "\u001b": 28,
    "\u001c": 29,
    "\u001d": 30,
    "\u001e": 31,
    "\u001f": 32,
    " ": 33,
    "!": 34,
    "\"": 35,
    "#": 36,
    "$": 37,
    "%": 38,
    "&": 39,
    "'": 40,
    "(": 41,
    ")": 42,
    "*": 43,
    "+": 44,
    ",": 45,
    "-": 46,
    ".": 47,
    "/": 48,
    "0": 49,
    "1": 50,
    "2": 51,
    "3": 52,
    "4": 53,
    "5": 54,
    "6": 55,
    "7": 56,
    "8": 57,
    "9": 58,
    ":": 59,
    ";": 60,
    "<": 61,
    "=": 62,
    ">": 63,
    "?": 64,
    "@": 65,
    "A": 66,
    "B": 67,
    "C": 68,
    "D": 69,
    "E": 70,
    "F": 71,
    "G": 72,
    "H": 73,
    "I": 74,
    "J": 75,
    "K": 76,
    "L": 77,
    "M": 78,
    "N": 79,
    "O": 80,
    "P": 81,
    "Q": 82,
    "R": 83,
    "S": 84,
    "T": 85,
    "U": 86,
    "V": 87,
    "W": 88,
    "X": 89,
    "Y": 90,
    "Z": 91,
    "[": 92,
    "\\": 93,
    "]": 94,
    "^": 95,
    "_": 96,
    "`": 97,
    "a": 98,
    "b": 99,
    "c": 100,
    "d": 101,
    "e": 102,
    "f": 103,
    "g": 104,
    "h": 105,
    "i": 106,
    "j": 107,
    "k": 108,
    "l": 109,
    "m": 110,
    "n": 111,
    "o": 112,
    "p": 113,
    "q": 114,
    "r": 115,
    "s": 116,
    "t": 117,
    "u": 118,
    "v": 119,
    "w": 120,
    "x": 121,
    "y": 122,
    "z": 123,
    "{": 124,
    "|": 125,
    "}": 126,
    "~": 127,
    "\u007f": 128,
    "\ufffd": 697,
    " t": 257,
    "he": 258,
    " a": 259,
    " s": 260,
    " w": 261,
    "nd": 262,
    " the": 263,
    "ed": 264,
    " b": 265,
    " to": 266,
    " and": 267,
    " h": 268,
    " f": 269,
    "in": 270,
    " T": 271,
    " wa": 272,
    "re": 273,
    "it": 274,
    "ou": 275,
    " l": 276,
    " d": 277,
    " c": 278,
    " p": 279,
    "ay": 280,
    " m": 281,
    "er": 282,
    " was": 283,
    "om": 284,
    " The": 285,
    " he": 286,
    "is": 287,
    "ar": 288,
    " n": 289,
    "im": 290,
    "on": 291,
    " sa": 292,
    "id": 293,
    "ll": 294,
    " ha": 295,
    " g": 296,
    "at": 297,
    " S": 298,
    "ing": 299,
    "ot": 300,
    "en": 301,
    "an": 302,
    "le": 303,
    "or": 304,
    "ir": 305,
    "am": 306,
    "et": 307,
    " H": 308,
    " it": 309,
    " th": 310,
    "ig": 311,
    " They": 312,
    " in": 313,
    "il": 314,
    " pl": 315,
    " He": 316,
    " \"": 317,
    "ow": 318,
    "ver": 319,
    "ri": 320,
    "ut": 321,
    " be": 322,
    " u": 323,
    " said": 324,
    " play": 325,
    "ith": 326,
    " day": 327,
    " with": 328,
    "pp": 329,
    "On": 330,
    " o": 331,
    " y": 332,
    "oo": 333,
    "ked": 334,
    " r": 335,
    " her": 336,
    "ce": 337,
    " I": 338,
    " She": 339,
    "ld": 340,
    " Tim": 341,
    " his": 342,
    " st": 343,
    "ke": 344,
    " e": 345,
    " big": 346,
    "nt": 347,
    "ck": 348,
    " you": 349,
    "very": 350,
    "st": 351,
    "ve": 352,
    "end": 353,
    " on": 354,
    "un": 355,
    " happ": 356,
    "riend": 357,
    " friend": 358,
    "all": 359,
    "ily": 360,
    " L": 361,
    " they": 362,
    " we": 363,
    " had": 364,
    " not": 365,
    " li": 366,
    " up": 367,
    "her": 368,
    " want": 369,
    " of": 370,
    "ad": 371,
    "itt": 372,
    "se": 373,
    " B": 374,
    " do": 375,
    " happy": 376,
    "ent": 377,
    " very": 378,
    " M": 379,
    "es": 380,
    " that": 381,
    " saw": 382,
    "One": 383,
    "'s": 384,
    "ould": 385,
    " mom": 386,
    " for": 387,
    " sh": 388,
    "ittle": 389,
    " little": 390,
    " so": 391,
    " she": 392,
    "ch": 393,
    "ime": 394,
    " ne": 395,
    " nam": 396,
    ".\"": 397,
    " time": 398,
    " k": 399,
    "ound": 400,
    " there": 401,
    " named": 402,
    " sm": 403,
    " bo": 404,
    " were": 405,
    " Lily": 406,
    " wanted": 407,
    " but": 408,
    "out": 409,
    "The": 410,
    " friends": 411,
    "ved": 412,
    "!\"": 413,
    "ht": 414,
    " Tom": 415,
    "ird": 416,
    "el": 417,
    " bird": 418,
    "al": 419,
    " an": 420,
    "ake": 421,
    " too": 422,
    "ome": 423,
    " It": 424,
    "ug": 425,
    "ide": 426,
    " went": 427,
    " wh": 428,
    " hel": 429,
    "Once": 430,
    " is": 431,
    " all": 432,
    " help": 433,
    "ue": 434,
    " loo": 435,
    " lo": 436,
    "ter": 437,
    " A": 438,
    " upon": 439,
    "ry": 440,
    "ore": 441,
    "ind": 442,
    " fun": 443,
    "get": 444,
    " toy": 445,
    "ill": 446,
    "ame": 447,
    " as": 448,
    " at": 449,
    "ra": 450,
    " j": 451,
    " did": 452,
    "gether": 453,
    " re": 454,
    "ur": 455,
    " se": 456,
    " together": 457,
    "ack": 458,
    " cat": 459,
    "ly": 460,
    " tre": 461,
    "ood": 462,
    "ic": 463,
    "ted": 464,
    " dog": 465,
    " could": 466,
    " can": 467,
    " their": 468,
    "ard": 469,
    "ec": 470,
    "ark": 471,
    " gir": 472,
    " played": 473,
    " him": 474,
    " ball": 475,
    "?\"": 476,
    " girl": 477,
    "way": 478,
    " ro": 479,
    " go": 480,
    "hed": 481,
    "my": 482,
    " are": 483,
    " out": 484,
    " le": 485,
    " fr": 486,
    "ain": 487,
    " kn": 488,
    "hen": 489,
    " them": 490,
    "um": 491,
    "'t": 492,
    "ax": 493,
    " sad": 494,
    "ul": 495,
    " boy": 496,
    " tree": 497,
    "other": 498,
    " have": 499,
    " man": 500,
    " cl": 501,
    " loved": 502,
    " looked": 503,
    "oug": 504,
    " found": 505,
    " sp": 506,
    " star": 507,
    " Sue": 508,
    "one": 509,
    "hing": 510,
    " sc": 511,
    " back": 512,
    "own": 513,
    " Max": 514,
    "are": 515,
    " like": 516,
    "ful": 517,
    "side": 518,
    " me": 519,
    " bec": 520,
    " park": 521,
    "ight": 522,
    "ong": 523,
    " car": 524,
    "op": 525,
    "elt": 526,
    " One": 527,
    " liked": 528,
    " would": 529,
    " make": 530,
    "round": 531,
    " la": 532,
    " fa": 533,
    " felt": 534,
    "You": 535,
    " W": 536,
    "ell": 537,
    " see": 538,
    " But": 539,
    "omet": 540,
    " asked": 541,
    "ag": 542,
    " new": 543,
    " no": 544,
    "ice": 545,
    " Sam": 546,
    "ouse": 547,
    " started": 548,
    "ared": 549,
    " came": 550,
    " Ben": 551,
    " al": 552,
    " other": 553,
    "ought": 554,
    "iled": 555,
    " somet": 556,
    " ag": 557,
    " good": 558,
    " small": 559,
    "ss": 560,
    " br": 561,
    " smiled": 562,
    " say": 563,
    "ried": 564,
    "ade": 565,
    "ings": 566,
    "ob": 567,
    "pot": 568,
    " wor": 569,
    " find": 570,
    " ex": 571,
    "ia": 572,
    " away": 573,
    "ty": 574,
    " put": 575,
    " what": 576,
    " something": 577,
    " co": 578,
    " from": 579,
    " made": 580,
    " thought": 581,
    "ened": 582,
    " home": 583,
    " playing": 584,
    "ook": 585,
    " every": 586,
    " wal": 587,
    " mu": 588,
    "uc": 589,
    "ach": 590,
    "arn": 591,
    " Spot": 592,
    " ran": 593,
    "ile": 594,
    " F": 595,
    "ie": 596,
    " J": 597,
    "ave": 598,
    " again": 599,
    " some": 600,
    " laug": 601,
    "dd": 602,
    " house": 603,
    " down": 604,
    " fl": 605,
    "king": 606,
    " took": 607,
    " scared": 608,
    " pr": 609,
    "ny": 610,
    "ure": 611,
    " toys": 612,
    " learn": 613,
    " You": 614,
    "if": 615,
    " will": 616,
    " box": 617,
    "ick": 618,
    "ret": 619,
    "ab": 620,
    "ep": 621,
    " my": 622,
    " around": 623,
    " things": 624,
    " your": 625,
    "oud": 626,
    " bl": 627,
    "uck": 628,
    " when": 629,
    "ish": 630,
    " lived": 631,
    " fe": 632,
    " then": 633,
    " sun": 634,
    "as": 635,
    " sw": 636,
    ",\"": 637,
    " ch": 638,
    "us": 639,
    "pped": 640,
    " ab": 641,
    " Mia": 642,
    "ank": 643,
    " get": 644,
    "ucy": 645,
    "Tim": 646,
    "ump": 647,
    "Th": 648,
    " lot": 649,
    "ist": 650,
    "oth": 651,
    " tried": 652,
    "ap": 653,
    " know": 654,
    " says": 655,
    " got": 656,
    "ited": 657,
    " who": 658,
    " kne": 659,
    "ust": 660,
    " many": 661,
    "nder": 662,
    " int": 663,
    " about": 664,
    "Lily": 665,
    " pret": 666,
    " dec": 667,
    " any": 668,
    " red": 669,
    " D": 670,
    "ive": 671,
    " knew": 672,
    "ace": 673,
    "ous": 674,
    " more": 675,
    "ise": 676,
    " care": 677,
    "ally": 678,
    " pic": 679,
    "au": 680,
    "qu": 681,
    " hug": 682,
    " Lucy": 683,
    " learned": 684,
    " po": 685,
    " water": 686,
    "fter": 687,
    " v": 688,
    " became": 689,
    " best": 690,
    "ause": 691,
    " op": 692,
    " gre": 693,
    " exc": 694,
    "urp": 695,
    "ways": 696,
    " outside": 698,
    " laughed": 699,
    " look": 700,
    " always": 701,
    " decid": 702,
    " show": 703,
    " un": 704,
    "ant": 705,
    " Bob": 706,
    " room": 707,
    "fe": 708,
    " decided": 709,
    " ho": 710,
    " because": 711,
    " So": 712,
    " into": 713,
    " eat": 714,
    "ite": 715,
    " jump": 716,
    " And": 717,
    " pe": 718,
    " both": 719,
    "ers": 720,
    " Mom": 721,
    " dad": 722,
    "They": 723,
    "udd": 724,
    " ke": 725,
    " one": 726,
    "nn": 727,
    " this": 728,
    " excited": 729,
    " fast": 730,
    " nice": 731,
    " E": 732,
    " feel": 733,
    "Tom": 734,
    "Yes": 735,
    " run": 736,
    " long": 737,
    " told": 738,
    " sk": 739,
    " am": 740,
    "urpr": 741,
    "our": 742,
    " inside": 743,
    "ull": 744,
    " tr": 745,
    " surpr": 746,
    " mo": 747,
    "ink": 748,
    " pretty": 749,
    "iny": 750,
    " sor": 751,
    "Wh": 752,
    " take": 753,
    "og": 754,
    " sl": 755,
    " each": 756,
    " gave": 757,
    " much": 758,
    " gra": 759,
    "lew": 760,
    "nna": 761,
    " rock": 762,
    " how": 763,
    " str": 764,
    "ara": 765,
    "imal": 766,
    " animal": 767,
    "ged": 768,
    " need": 769,
    " than": 770,
    "But": 771,
    "ven": 772,
    "etter": 773,
    " tow": 774,
    " or": 775,
    " C": 776,
    " under": 777,
    "ess": 778,
    " old": 779,
    " sorry": 780,
    "ge": 781,
    "ised": 782,
    "ro": 783,
    "urt": 784,
    " cle": 785,
    " fish": 786,
    " walked": 787,
    " clo": 788,
    "and": 789,
    " bear": 790,
    "ft": 791,
    "ase": 792,
    "ast": 793,
    " hand": 794,
    "urn": 795,
    " We": 796,
    " kind": 797,
    " His": 798,
    " te": 799,
    "here": 800,
    " happened": 801,
    " just": 802,
    " flow": 803,
    " food": 804,
    " list": 805,
    " didn": 806,
    " animals": 807,
    " hig": 808,
    "pl": 809,
    " near": 810,
    " wat": 811,
    " ide": 812,
    " try": 813,
    "ched": 814,
    " sky": 815,
    "ine": 816,
    " sn": 817,
    "ving": 818,
    " fi": 819,
    "rom": 820,
    " us": 821,
    " idea": 822,
    " better": 823,
    " Amy": 824,
    " bug": 825,
    " heard": 826,
    "gry": 827,
    " its": 828,
    " tw": 829,
    " let": 830,
    "pec": 831,
    "ate": 832,
    "able": 833,
    "ff": 834,
    " en": 835,
    " careful": 836,
    " share": 837,
    "ex": 838,
    " if": 839,
    "Thank": 840,
    "Mom": 841,
    " fly": 842,
    " stor": 843,
    "ial": 844,
    " flew": 845,
    "more": 846,
    " anymore": 847,
    " Th": 848,
    " spec": 849,
    " special": 850,
    "ion": 851,
    " com": 852,
    " lots": 853,
    " never": 854,
    " by": 855,
    "lf": 856,
    "ream": 857,
    " dan": 858,
    " bu": 859,
    " fo": 860,
    " wind": 861,
    " don": 862,
    " tal": 863,
    " clean": 864,
    "ort": 865,
    " gr": 866,
    " love": 867,
    "rm": 868,
    "ber": 869,
    " end": 870,
    "\n\n": 871,
    " Then": 872,
    "ople": 873,
    " even": 874,
    " mag": 875,
    " hard": 876,
    " shiny": 877,
    "udden": 878,
    " fore": 879,
    " over": 880,
    " cake": 881,
    "ak": 882,
    " book": 883,
    " col": 884,
    " turn": 885,
    " fam": 886,
    " bad": 887,
    " safe": 888,
    " after": 889,
    "ady": 890,
    " Anna": 891,
    "uddenly": 892,
    " people": 893,
    " proud": 894,
    " Every": 895,
    " surprised": 896,
    "pected": 897,
    "Let": 898,
    " high": 899,
    " cu": 900,
    " hurt": 901,
    " come": 902,
    "imb": 903,
    "arden": 904,
    " door": 905,
    " garden": 906,
    "bb": 907,
    " ground": 908,
    " opened": 909,
    " picked": 910,
    " loud": 911,
    " climb": 912,
    "expected": 913,
    " unexpected": 914,
    " gl": 915,
    " che": 916,
    "ild": 917,
    " im": 918,
    "As": 919,
    " give": 920,
    " way": 921,
    "ail": 922,
    "'m": 923,
    " thanked": 924,
    " color": 925,
    " blue": 926,
    " still": 927,
    " ever": 928,
    " hugged": 929,
    " From": 930,
    " call": 931,
    " far": 932,
    "ip": 933,
    " Her": 934,
    " Sara": 935,
    " When": 936,
    "No": 937,
    " off": 938,
    " magic": 939,
    "iz": 940,
    "ough": 941,
    "age": 942,
    "ummy": 943,
    " K": 944,
    " jumped": 945,
    " should": 946,
    " family": 947,
    " par": 948,
    "ool": 949,
    " kid": 950,
    " smile": 951,
    "hes": 952,
    "uff": 953,
    " place": 954,
    "kay": 955,
    " walk": 956,
    " now": 957,
    "ct": 958,
    " In": 959,
    " great": 960,
    "em": 961,
    "ture": 962,
    " qu": 963,
    "les": 964,
    " strong": 965,
    " stay": 966,
    " unt": 967,
    " sto": 968,
    "aut": 969,
    " forest": 970,
    "ane": 971,
    " bra": 972,
    "itty": 973,
    " P": 974,
    " frog": 975,
    " bro": 976,
    " until": 977,
    "oon": 978,
    " beaut": 979,
    "dy": 980,
    " squ": 981,
    " stick": 982,
    "xt": 983,
    " next": 984,
    " boat": 985,
    "lease": 986,
    "ning": 987,
    " happily": 988,
    " listen": 989,
    "aking": 990,
    " kids": 991,
    " tra": 992,
    "ies": 993,
    "iful": 994,
    " beautiful": 995,
    " app": 996,
    "th": 997,
    " helped": 998,
    " dra": 999,
    " showed": 1000,
    " clos": 1001,
    "be": 1002,
    " imp": 1003,
    " story": 1004,
    "unny": 1005,
    "oy": 1006,
    " while": 1007,
    " town": 1008,
    "rel": 1009,
    "pt": 1010,
    " rain": 1011,
    "ress": 1012,
    " picture": 1013,
    " being": 1014,
    " rem": 1015,
    " everyone": 1016,
    "It": 1017,
    "ary": 1018,
    "ree": 1019,
    " mor": 1020,
    " hat": 1021,
    " called": 1022,
    " met": 1023,
    " stopped": 1024,
    " ad": 1025,
    " game": 1026,
    "Now": 1027,
    "He": 1028,
    "Can": 1029,
    " angry": 1030,
    "ger": 1031,
    "uffy": 1032,
    " open": 1033,
    " wo": 1034,
    " truck": 1035,
    " keep": 1036,
    " soft": 1037,
    "When": 1038,
    " cry": 1039,
    " yummy": 1040,
    " lost": 1041,
    " bed": 1042,
    " Let": 1043,
    " Sally": 1044,
    " warm": 1045,
    "by": 1046,
    "vent": 1047,
    " brave": 1048,
    " mouse": 1049,
    " Wh": 1050,
    " ate": 1051,
    " Kitty": 1052,
    "ished": 1053,
    " de": 1054,
    "fore": 1055,
    " doll": 1056,
    "so": 1057,
    " couldn": 1058,
    " watch": 1059,
    " leave": 1060,
    " also": 1061,
    "dded": 1062,
    " fell": 1063,
    " green": 1064,
    " face": 1065,
    " two": 1066,
    "gan": 1067,
    "iss": 1068,
    " flowers": 1069,
    "bit": 1070,
    "What": 1071,
    " R": 1072,
    "ble": 1073,
    " noise": 1074,
    "abbit": 1075,
    "irst": 1076,
    "owl": 1077,
    " where": 1078,
    "az": 1079,
    "ock": 1080,
    " soon": 1081,
    "self": 1082,
    " slide": 1083,
    " rabbit": 1084,
    " hole": 1085,
    "luffy": 1086,
    " before": 1087,
    "irrel": 1088,
    " pus": 1089,
    "ired": 1090,
    " sat": 1091,
    "illy": 1092,
    " hear": 1093,
    " use": 1094,
    "\u201d": 1095,
    "Hi": 1096,
    " pa": 1097,
    " kept": 1098,
    "\u201c": 1099,
    "That": 1100,
    " squirrel": 1101,
    "ear": 1102,
    "Then": 1103,
    "ma": 1104,
    " nodded": 1105,
    " expl": 1106,
    " store": 1107,
    " cook": 1108,
    " hands": 1109,
    "Look": 1110,
    " birds": 1111,
    " pain": 1112,
    " going": 1113,
    " funny": 1114,
    " having": 1115,
    "day": 1116,
    " sing": 1117,
    "aybe": 1118,
    "uch": 1119,
    " ey": 1120,
    "aug": 1121,
    " catch": 1122,
    "aught": 1123,
    " Can": 1124,
    " Fluffy": 1125,
    "uit": 1126,
    " yell": 1127,
    " think": 1128,
    "leep": 1129,
    " cra": 1130,
    " fin": 1131,
    "Ben": 1132,
    " bre": 1133,
    " fix": 1134,
    " tired": 1135,
    " bunny": 1136,
    " used": 1137,
    " looking": 1138,
    " bus": 1139,
    "ange": 1140,
    "air": 1141,
    " work": 1142,
    " wr": 1143,
    " our": 1144,
    " pull": 1145,
    "We": 1146,
    " thr": 1147,
    "thing": 1148,
    " Now": 1149,
    " wait": 1150,
    " kit": 1151,
    " sound": 1152,
    "ting": 1153,
    " jo": 1154,
    " has": 1155,
    " G": 1156,
    " mean": 1157,
    " pond": 1158,
    "ember": 1159,
    " beh": 1160,
    " dr": 1161,
    " sunny": 1162,
    "led": 1163,
    " others": 1164,
    " ask": 1165,
    "ng": 1166,
    "chen": 1167,
    " kitchen": 1168,
    " talk": 1169,
    " flo": 1170,
    " dif": 1171,
    "rew": 1172,
    " pie": 1173,
    " Jo": 1174,
    " head": 1175,
    " real": 1176,
    " first": 1177,
    " tri": 1178,
    " mommy": 1179,
    " eyes": 1180,
    "ello": 1181,
    " import": 1182,
    "Hello": 1183,
    " fav": 1184,
    "ath": 1185,
    "joy": 1186,
    " z": 1187,
    " remember": 1188,
    " right": 1189,
    " flower": 1190,
    " con": 1191,
    " mess": 1192,
    " party": 1193,
    " cold": 1194,
    " Do": 1195,
    " vo": 1196,
    " swe": 1197,
    "ious": 1198,
    " sand": 1199,
    " \u201c": 1200,
    "ac": 1201,
    "orn": 1202,
    " race": 1203,
    " curi": 1204,
    "imes": 1205,
    " important": 1206,
    " duck": 1207,
    " moral": 1208,
    " shared": 1209,
    "zy": 1210,
    "ount": 1211,
    " Jack": 1212,
    " ice": 1213,
    " okay": 1214,
    " advent": 1215,
    " worked": 1216,
    "llow": 1217,
    "At": 1218,
    " enjoy": 1219,
    " dress": 1220,
    " bright": 1221,
    " making": 1222,
    " curious": 1223,
    " own": 1224,
    " tall": 1225,
    " dir": 1226,
    " hop": 1227,
    "reed": 1228,
    " hid": 1229,
    " favor": 1230,
    " ri": 1231,
    "hn": 1232,
    " sleep": 1233,
    " dis": 1234,
    "Wow": 1235,
    " favorite": 1236,
    " thing": 1237,
    " began": 1238,
    " mon": 1239,
    " bag": 1240,
    " hill": 1241,
    "Don": 1242,
    " cla": 1243,
    " draw": 1244,
    " rest": 1245,
    " here": 1246,
    " yard": 1247,
    " tell": 1248,
    " Fin": 1249,
    "ster": 1250,
    " watched": 1251,
    "que": 1252,
    " follow": 1253,
    " move": 1254,
    " bel": 1255,
    "ect": 1256,
    " cut": 1257,
    " night": 1258,
    " agreed": 1259,
    " pick": 1260,
    "co": 1261,
    " block": 1262,
    " hun": 1263,
    "aper": 1264,
    "lly": 1265,
    " stop": 1266,
    " behind": 1267,
    " This": 1268,
    " surprise": 1269,
    "ied": 1270,
    " sho": 1271,
    " hot": 1272,
    "After": 1273,
    " table": 1274,
    " grass": 1275,
    " worry": 1276,
    " dark": 1277,
    " trees": 1278,
    " voice": 1279,
    " walking": 1280,
    "fere": 1281,
    " floor": 1282,
    " farm": 1283,
    " lion": 1284,
    " top": 1285,
    " differe": 1286,
    " please": 1287,
    " ru": 1288,
    " song": 1289,
    " butter": 1290,
    " tail": 1291,
    " sweet": 1292,
    "Max": 1293,
    " shout": 1294,
    " colors": 1295,
    " read": 1296,
    " Dad": 1297,
    " lady": 1298,
    " forg": 1299,
    "isy": 1300,
    " leaves": 1301,
    " closer": 1302,
    "ign": 1303,
    " cars": 1304,
    " turned": 1305,
    " needed": 1306,
    " tast": 1307,
    "Why": 1308,
    "aring": 1309,
    " wood": 1310,
    " cried": 1311,
    " different": 1312,
    " laugh": 1313,
    " del": 1314,
    " piece": 1315,
    "\u2019": 1316,
    "ered": 1317,
    " Mr": 1318,
    " roll": 1319,
    " adventure": 1320,
    " fire": 1321,
    " does": 1322,
    "ike": 1323,
    " cr": 1324,
    " hungry": 1325,
    " hair": 1326,
    " Suddenly": 1327,
    " paper": 1328,
    " feeling": 1329,
    " yellow": 1330,
    " full": 1331,
    "bo": 1332,
    " prin": 1333,
    "Sue": 1334,
    " touch": 1335,
    " As": 1336,
    "Anna": 1337,
    "Sam": 1338,
    " wet": 1339,
    " friendly": 1340,
    " per": 1341,
    "oom": 1342,
    "ken": 1343,
    "cked": 1344,
    "ached": 1345,
    " swing": 1346,
    " fruit": 1347,
    "ient": 1348,
    " broken": 1349,
    " ready": 1350,
    "bye": 1351,
    "ppy": 1352,
    " prom": 1353,
    " That": 1354,
    " another": 1355,
    " light": 1356,
    " pretend": 1357,
    " dance": 1358,
    "ater": 1359,
    " climbed": 1360,
    "where": 1361,
    " listened": 1362,
    " Bobo": 1363,
    " danc": 1364,
    " running": 1365,
    " only": 1366,
    " plan": 1367,
    " gone": 1368,
    " swim": 1369,
    "bbed": 1370,
    "Suddenly": 1371,
    "sh": 1372,
    " train": 1373,
    "ila": 1374,
    "ndma": 1375,
    "Sara": 1376,
    " Jane": 1377,
    " close": 1378,
    "av": 1379,
    "She": 1380,
    " smell": 1381,
    "So": 1382,
    "aby": 1383,
    " amaz": 1384,
    " hold": 1385,
    " blocks": 1386,
    " wonder": 1387,
    " Timmy": 1388,
    " repl": 1389,
    " All": 1390,
    " butterf": 1391,
    " sees": 1392,
    " reached": 1393,
    " wall": 1394,
    " pu": 1395,
    "oney": 1396,
    "red": 1397,
    " slow": 1398,
    " helping": 1399,
    " dri": 1400,
    " cream": 1401,
    " cool": 1402,
    " glad": 1403,
    "af": 1404,
    " ant": 1405,
    " less": 1406,
    " been": 1407,
    " goodbye": 1408,
    " ac": 1409,
    " fight": 1410,
    "ather": 1411,
    "Mia": 1412,
    " pushed": 1413,
    "iced": 1414,
    " fair": 1415,
    " must": 1416,
    " hide": 1417,
    " moment": 1418,
    " window": 1419,
    " O": 1420,
    " sit": 1421,
    " balloon": 1422,
    " snow": 1423,
    " child": 1424,
    " explore": 1425,
    " Everyone": 1426,
    " ar": 1427,
    " wished": 1428,
    " baby": 1429,
    " done": 1430,
    " wag": 1431,
    " ste": 1432,
    " buy": 1433,
    " stuck": 1434,
    " perf": 1435,
    " thank": 1436,
    " might": 1437,
    "icy": 1438,
    " name": 1439,
    "ized": 1440,
    " trying": 1441,
    " bit": 1442,
    " coming": 1443,
    " bar": 1444,
    " quick": 1445,
    " fall": 1446,
    " apple": 1447,
    "ash": 1448,
    " scary": 1449,
    " looks": 1450,
    " build": 1451,
    " doing": 1452,
    " win": 1453,
    " underst": 1454,
    "aisy": 1455,
    " din": 1456,
    " dream": 1457,
    " dirty": 1458,
    " held": 1459,
    "ames": 1460,
    " books": 1461,
    " mar": 1462,
    "In": 1463,
    " butterfly": 1464,
    " left": 1465,
    " shouted": 1466,
    " count": 1467,
    " replied": 1468,
    "avy": 1469,
    " reach": 1470,
    " tiny": 1471,
    " through": 1472,
    "ott": 1473,
    " dro": 1474,
    " why": 1475,
    " air": 1476,
    " bran": 1477,
    " land": 1478,
    "key": 1479,
    " three": 1480,
    " pulled": 1481,
    " spl": 1482,
    " grow": 1483,
    " treat": 1484,
    " brother": 1485,
    " wise": 1486,
    " woods": 1487,
    " sure": 1488,
    "'re": 1489,
    " chair": 1490,
    "ix": 1491,
    " mat": 1492,
    "ins": 1493,
    " seen": 1494,
    " pink": 1495,
    " clapped": 1496,
    " plant": 1497,
    "ely": 1498,
    " owl": 1499,
    " cup": 1500,
    "ield": 1501,
    " sometimes": 1502,
    "andy": 1503,
    " fill": 1504,
    " cloud": 1505,
    "ask": 1506,
    " swam": 1507,
    "outh": 1508,
    " job": 1509,
    " colorful": 1510,
    " remembered": 1511,
    " bigger": 1512,
    " nest": 1513,
    " mouth": 1514,
    "pe": 1515,
    "Okay": 1516,
    " lesson": 1517,
    " join": 1518,
    " cre": 1519,
    "ph": 1520,
    " There": 1521,
    "oup": 1522,
    "room": 1523,
    "art": 1524,
    " waved": 1525,
    "uddy": 1526,
    " grabbed": 1527,
    " stayed": 1528,
    "Oh": 1529,
    " paint": 1530,
    "This": 1531,
    " clot": 1532,
    " cont": 1533,
    " clothes": 1534,
    " ve": 1535,
    "ower": 1536,
    " After": 1537,
    " waited": 1538,
    " quickly": 1539,
    "cle": 1540,
    " word": 1541,
    " broke": 1542,
    "ucky": 1543,
    " games": 1544,
    " cast": 1545,
    " blew": 1546,
    " gent": 1547,
    " Mommy": 1548,
    " enjoyed": 1549,
    " noticed": 1550,
    "Jo": 1551,
    "ries": 1552,
    "ation": 1553,
    " set": 1554,
    " likes": 1555,
    " pictures": 1556,
    "ton": 1557,
    "de": 1558,
    " sea": 1559,
    " heavy": 1560,
    " mus": 1561,
    " alone": 1562,
    " gif": 1563,
    "asure": 1564,
    " anything": 1565,
    " spot": 1566,
    " miss": 1567,
    " hopped": 1568,
    " world": 1569,
    " turns": 1570,
    "orm": 1571,
    " year": 1572,
    "der": 1573,
    " bott": 1574,
    " pat": 1575,
    " pot": 1576,
    " pen": 1577,
    "lc": 1578,
    "Her": 1579,
    " mix": 1580,
    " arm": 1581,
    " bike": 1582,
    " tight": 1583,
    " everywhere": 1584,
    " won": 1585,
    "Lucy": 1586,
    " tower": 1587,
    " threw": 1588,
    " himself": 1589,
    " followed": 1590,
    " Buddy": 1591,
    " ride": 1592,
    "man": 1593,
    "less": 1594,
    " ju": 1595,
    " je": 1596,
    "amp": 1597,
    "Bob": 1598,
    "ape": 1599,
    " comp": 1600,
    " key": 1601,
    "row": 1602,
    "\".": 1603,
    " white": 1604,
    "ctor": 1605,
    " wrong": 1606,
    " Daisy": 1607,
    " makes": 1608,
    " What": 1609,
    " break": 1610,
    " black": 1611,
    "arent": 1612,
    "ee": 1613,
    "ner": 1614,
    "Spot": 1615,
    "Do": 1616,
    " deep": 1617,
    "thy": 1618,
    " music": 1619,
    " pol": 1620,
    " delic": 1621,
    "cess": 1622,
    "ued": 1623,
    " forgot": 1624,
    " bee": 1625,
    " parent": 1626,
    " castle": 1627,
    "ves": 1628,
    "olly": 1629,
    " em": 1630,
    "iet": 1631,
    " wear": 1632,
    " hit": 1633,
    "ister": 1634,
    "oun": 1635,
    " quiet": 1636,
    " round": 1637,
    "ance": 1638,
    " stu": 1639,
    " danced": 1640,
    " vis": 1641,
    "ully": 1642,
    " wants": 1643,
    " leaf": 1644,
    " monster": 1645,
    " nap": 1646,
    " John": 1647,
    " understand": 1648,
    "ang": 1649,
    " bowl": 1650,
    "os": 1651,
    "rot": 1652,
    "ren": 1653,
    " bor": 1654,
    " talked": 1655,
    "itten": 1656,
    " dry": 1657,
    " faster": 1658,
    " cookies": 1659,
    " brought": 1660,
    "fully": 1661,
    " leg": 1662,
    "ross": 1663,
    " mum": 1664,
    "zz": 1665,
    " side": 1666,
    "ts": 1667,
    "From": 1668,
    " sign": 1669,
    " Inside": 1670,
    " smart": 1671,
    "cy": 1672,
    " rocks": 1673,
    " someone": 1674,
    "His": 1675,
    " poin": 1676,
    " sec": 1677,
    " sharing": 1678,
    " fox": 1679,
    " well": 1680,
    " res": 1681,
    " rel": 1682,
    " happen": 1683,
    " button": 1684,
    " branch": 1685,
    " Lila": 1686,
    " really": 1687,
    " finished": 1688,
    "ence": 1689,
    "ards": 1690,
    " dinner": 1691,
    " sister": 1692,
    " flying": 1693,
    "eddy": 1694,
    " contin": 1695,
    " worried": 1696,
    " ele": 1697,
    " To": 1698,
    " visit": 1699,
    " Maybe": 1700,
    " beach": 1701,
    " que": 1702,
    " secret": 1703,
    " el": 1704,
    " Sarah": 1705,
    " king": 1706,
    "John": 1707,
    "gy": 1708,
    " today": 1709,
    " perfect": 1710,
    " river": 1711,
    " everything": 1712,
    " silly": 1713,
    " shin": 1714,
    " Joe": 1715,
    " danger": 1716,
    "ipp": 1717,
    " children": 1718,
    " gu": 1719,
    " Soon": 1720,
    " field": 1721,
    " filled": 1722,
    " fur": 1723,
    " else": 1724,
    " smiles": 1725,
    " welc": 1726,
    " At": 1727,
    " wish": 1728,
    " Em": 1729,
    "While": 1730,
    " sang": 1731,
    " gi": 1732,
    "ze": 1733,
    " pudd": 1734,
    " snack": 1735,
    " eating": 1736,
    " realized": 1737,
    " pieces": 1738,
    " promised": 1739,
    "ord": 1740,
    " spr": 1741,
    " pig": 1742,
    " free": 1743,
    " continued": 1744,
    " bite": 1745,
    "ead": 1746,
    " parents": 1747,
    " carefully": 1748,
    "ated": 1749,
    "itting": 1750,
    " ear": 1751,
    "Just": 1752,
    " jar": 1753,
    "Maybe": 1754,
    " cow": 1755,
    "Amy": 1756,
    " blank": 1757,
    " drag": 1758,
    "stead": 1759,
    " orange": 1760,
    " mud": 1761,
    " crying": 1762,
    " blanket": 1763,
    " enough": 1764,
    " rolled": 1765,
    "cket": 1766,
    " soup": 1767,
    " sail": 1768,
    " purp": 1769,
    "imi": 1770,
    " yes": 1771,
    "ale": 1772,
    " drink": 1773,
    " snake": 1774,
    "ses": 1775,
    " boun": 1776,
    " pet": 1777,
    " crab": 1778,
    " throw": 1779,
    " laughing": 1780,
    " fairy": 1781,
    " words": 1782,
    " amazing": 1783,
    " bath": 1784,
    "ich": 1785,
    " purple": 1786,
    " Z": 1787,
    " without": 1788,
    "ire": 1789,
    " bottle": 1790,
    " Billy": 1791,
    " gift": 1792,
    " grandma": 1793,
    "Fin": 1794,
    "used": 1795,
    "ons": 1796,
    " past": 1797,
    " money": 1798,
    "iver": 1799,
    "fort": 1800,
    " mail": 1801,
    " Gra": 1802,
    " barked": 1803,
    " wagged": 1804,
    " att": 1805,
    "chool": 1806,
    " monkey": 1807,
    " doctor": 1808,
    "unch": 1809,
    " brown": 1810,
    " moved": 1811,
    "ises": 1812,
    " asks": 1813,
    " getting": 1814,
    " closed": 1815,
    " whe": 1816,
    " welcome": 1817,
    " su": 1818,
    " candy": 1819,
    " school": 1820,
    " morning": 1821,
    " owner": 1822,
    "gg": 1823,
    " lon": 1824,
    " mother": 1825,
    " higher": 1826,
    " sitting": 1827,
    " treasure": 1828,
    ".\u201d": 1829,
    " smo": 1830,
    "!\u201d": 1831,
    " dangerous": 1832,
    " lonely": 1833,
    " Ch": 1834,
    " living": 1835,
    " apples": 1836,
    "ush": 1837,
    " shop": 1838,
    "ased": 1839,
    " strange": 1840,
    "vel": 1841,
    " shining": 1842,
    " road": 1843,
    "ere": 1844,
    " Tommy": 1845,
    " creat": 1846,
    "una": 1847,
    " paw": 1848,
    " ra": 1849,
    "ey": 1850,
    " shoes": 1851,
    " pre": 1852,
    "ible": 1853,
    " -": 1854,
    " stre": 1855,
    " talking": 1856,
    "althy": 1857,
    " caught": 1858,
    " egg": 1859,
    "ol": 1860,
    " pass": 1861,
    "me": 1862,
    " lake": 1863,
    " runs": 1864,
    " buck": 1865,
    " letter": 1866,
    " wings": 1867,
    " chee": 1868,
    "fish": 1869,
    " mad": 1870,
    " fan": 1871,
    "asket": 1872,
    " basket": 1873,
    "ass": 1874,
    " dragon": 1875,
    "app": 1876,
    "Mommy": 1877,
    "set": 1878,
    "cks": 1879,
    " stone": 1880,
    " thinks": 1881,
    " stand": 1882,
    " delicious": 1883,
    " nose": 1884,
    " puddle": 1885,
    " tom": 1886,
    " Bl": 1887,
    " Mimi": 1888,
    " belie": 1889,
    " farmer": 1890,
    " same": 1891,
    " years": 1892,
    "board": 1893,
    " teddy": 1894,
    " bat": 1895,
    "isk": 1896,
    "itch": 1897,
    " mine": 1898,
    " sear": 1899,
    " coat": 1900,
    "ches": 1901,
    "igh": 1902,
    " days": 1903,
    " bring": 1904,
    " gentle": 1905,
    " fit": 1906,
    " start": 1907,
    " finally": 1908,
    " whist": 1909,
    " cray": 1910,
    "igg": 1911,
    " scream": 1912,
    " kite": 1913,
    " pill": 1914,
    "phant": 1915,
    "arm": 1916,
    " vill": 1917,
    " cho": 1918,
    " singing": 1919,
    "ella": 1920,
    "sw": 1921,
    "ined": 1922,
    " tasty": 1923,
    " ph": 1924,
    " ben": 1925,
    " trou": 1926,
    " shell": 1927,
    " herself": 1928,
    " hoped": 1929,
    " answ": 1930,
    " wore": 1931,
    " swings": 1932,
    "sy": 1933,
    " hor": 1934,
    " belong": 1935,
    "Please": 1936,
    " push": 1937,
    " bush": 1938,
    "iskers": 1939,
    " carrot": 1940,
    " arri": 1941,
    "aughty": 1942,
    " teach": 1943,
    "bow": 1944,
    "ract": 1945,
    " naughty": 1946,
    " elephant": 1947,
    " dropped": 1948,
    " shap": 1949,
    "ier": 1950,
    " coll": 1951,
    "sc": 1952,
    " teac": 1953,
    "emy": 1954,
    " woke": 1955,
    "ball": 1956,
    " pile": 1957,
    " hiding": 1958,
    " cour": 1959,
    "isa": 1960,
    "erry": 1961,
    " touc": 1962,
    " min": 1963,
    " puppy": 1964,
    "'ll": 1965,
    " seem": 1966,
    "llie": 1967,
    " twins": 1968,
    "ama": 1969,
    " lunch": 1970,
    " bow": 1971,
    " sack": 1972,
    " pers": 1973,
    " course": 1974,
    " cheered": 1975,
    " shapes": 1976,
    " Jen": 1977,
    " grew": 1978,
    "fused": 1979,
    " rope": 1980,
    " village": 1981,
    "irth": 1982,
    "irthday": 1983,
    " juice": 1984,
    "ipped": 1985,
    " rainbow": 1986,
    " spin": 1987,
    "OK": 1988,
    " shook": 1989,
    "Jack": 1990,
    " spoon": 1991,
    " bench": 1992,
    " street": 1993,
    " fence": 1994,
    " cute": 1995,
    " Fred": 1996,
    " rob": 1997,
    " nut": 1998,
    " cheese": 1999,
    " prob": 2000,
    " touched": 2001,
    "idge": 2002,
    "col": 2003,
    " joy": 2004,
    " Whiskers": 2005,
    " arrived": 2006,
    " seed": 2007,
    " war": 2008,
    " teacher": 2009,
    " corn": 2010,
    "Good": 2011,
    " forever": 2012,
    " able": 2013,
    " bell": 2014,
    " few": 2015,
    " carry": 2016,
    " most": 2017,
    " plane": 2018,
    " Blue": 2019,
    "lem": 2020,
    " eas": 2021,
    " sounds": 2022,
    "lla": 2023,
    " des": 2024,
    " spo": 2025,
    " problem": 2026,
    " birthday": 2027,
    " power": 2028,
    " inc": 2029,
    "umb": 2030,
    "br": 2031,
    "\n ": 2032,
    " bugs": 2033,
    "ilk": 2034,
    " wonderful": 2035,
    " dolls": 2036,
    " busy": 2037,
    "ato": 2038,
    "irp": 2039,
    "eb": 2040,
    " wra": 2041,
    " promise": 2042,
    " Thank": 2043,
    " feels": 2044,
    "ian": 2045,
    " Emma": 2046,
    "eter": 2047,
    " bread": 2048,
    " neck": 2049,
    "Finally": 2050,
    " milk": 2051,
    " robot": 2052,
    " rec": 2053,
    " shy": 2054,
    "ountain": 2055,
    " kiss": 2056,
    "irt": 2057,
    " heart": 2058,
    " band": 2059,
    " cave": 2060,
    " pocket": 2061,
    "ub": 2062,
    " helpful": 2063,
    "gly": 2064,
    " slowly": 2065,
    " believe": 2066,
    " shake": 2067,
    "umpy": 2068,
    "eared": 2069,
    " patient": 2070,
    " pop": 2071,
    " ob": 2072,
    "arp": 2073,
    " live": 2074,
    " storm": 2075,
    " holding": 2076,
    " ugly": 2077,
    " towards": 2078,
    " upset": 2079,
    " turt": 2080,
    " shr": 2081,
    "adow": 2082,
    " cover": 2083,
    " kitten": 2084,
    "ost": 2085,
    " Remy": 2086,
    " sharp": 2087,
    " disapp": 2088,
    " stories": 2089,
    " suc": 2090,
    " honey": 2091,
    "ove": 2092,
    " Bella": 2093,
    "read": 2094,
    " noises": 2095,
    " Le": 2096,
    " cir": 2097,
    " balls": 2098,
    " spark": 2099,
    " gray": 2100,
    " dist": 2101,
    " dirt": 2102,
    "oggy": 2103,
    " late": 2104,
    " driver": 2105,
    " seat": 2106,
    " bucket": 2107,
    " meet": 2108,
    " young": 2109,
    " amazed": 2110,
    " turtle": 2111,
    "alm": 2112,
    " spid": 2113,
    " treats": 2114,
    " magical": 2115,
    "unt": 2116,
    "ator": 2117,
    " glow": 2118,
    " seek": 2119,
    " zoom": 2120,
    " lem": 2121,
    " sandw": 2122,
    "fortable": 2123,
    "umber": 2124,
    " trip": 2125,
    " mist": 2126,
    "ourn": 2127,
    " splas": 2128,
    " mark": 2129,
    " journ": 2130,
    " fold": 2131,
    " mach": 2132,
    " puzz": 2133,
    " part": 2134,
    "ling": 2135,
    " horse": 2136,
    " organ": 2137,
    " wild": 2138,
    " princess": 2139,
    "pping": 2140,
    "oose": 2141,
    " cookie": 2142,
    "Sure": 2143,
    "ens": 2144,
    " hugs": 2145,
    " Mark": 2146,
    " taking": 2147,
    "ung": 2148,
    " wheel": 2149,
    "epend": 2150,
    " cloth": 2151,
    " Lisa": 2152,
    " sug": 2153,
    " instead": 2154,
    " bubb": 2155,
    " string": 2156,
    " net": 2157,
    " drove": 2158,
    "iling": 2159,
    " rude": 2160,
    " huge": 2161,
    " Jim": 2162,
    " coin": 2163,
    " stars": 2164,
    " fighting": 2165,
    "Be": 2166,
    " spicy": 2167,
    " lucky": 2168,
    "Of": 2169,
    " craw": 2170,
    "Hey": 2171,
    " bone": 2172,
    " inv": 2173,
    " Grandma": 2174,
    "ors": 2175,
    "not": 2176,
    " ca": 2177,
    "pper": 2178,
    " forget": 2179,
    "up": 2180,
    " di": 2181,
    "aur": 2182,
    " sal": 2183,
    " Finally": 2184,
    " cannot": 2185,
    " whistle": 2186,
    " card": 2187,
    " sick": 2188,
    " path": 2189,
    " cou": 2190,
    " spider": 2191,
    " wide": 2192,
    "Lila": 2193,
    " foot": 2194,
    " snowman": 2195,
    " songs": 2196,
    " life": 2197,
    " pillow": 2198,
    "ize": 2199,
    "ular": 2200,
    " Just": 2201,
    "Later": 2202,
    "est": 2203,
    " Ann": 2204,
    "ert": 2205,
    " fixed": 2206,
    " giant": 2207,
    "oph": 2208,
    "rill": 2209,
    " nod": 2210,
    " boss": 2211,
    " last": 2212,
    " comes": 2213,
    " joke": 2214,
    " moon": 2215,
    " taste": 2216,
    "den": 2217,
    " machine": 2218,
    " grumpy": 2219,
    " wave": 2220,
    " thin": 2221,
    " drive": 2222,
    " cart": 2223,
    " ash": 2224,
    " ser": 2225,
    " grab": 2226,
    " peace": 2227,
    "lower": 2228,
    " daddy": 2229,
    " On": 2230,
    " Leo": 2231,
    "ery": 2232,
    " sel": 2233,
    " shelf": 2234,
    " hidden": 2235,
    "erest": 2236,
    " suddenly": 2237,
    " wasn": 2238,
    " write": 2239,
    " landed": 2240,
    " confused": 2241,
    " ring": 2242,
    " change": 2243,
    " worm": 2244,
    " interest": 2245,
    " chased": 2246,
    "oop": 2247,
    " fruits": 2248,
    " sour": 2249,
    "ity": 2250,
    " myster": 2251,
    " bark": 2252,
    " rad": 2253,
    " smooth": 2254,
    " Come": 2255,
    " adventures": 2256,
    " val": 2257,
    " stepped": 2258,
    " fle": 2259,
    "ope": 2260,
    " oven": 2261,
    " takes": 2262,
    " missed": 2263,
    " selfish": 2264,
    "kin": 2265,
    " sheep": 2266,
    " messy": 2267,
    "To": 2268,
    " across": 2269,
    " ent": 2270,
    " exp": 2271,
    "to": 2272,
    " ce": 2273,
    " later": 2274,
    "elly": 2275,
    " N": 2276,
    "ife": 2277,
    " sticks": 2278,
    " tie": 2279,
    "St": 2280,
    "ever": 2281,
    " Luna": 2282,
    " step": 2283,
    " bought": 2284,
    " drew": 2285,
    " tea": 2286,
    "pect": 2287,
    " ban": 2288,
    "irpy": 2289,
    "box": 2290,
    "?\u201d": 2291,
    " wash": 2292,
    " lay": 2293,
    " pour": 2294,
    " beak": 2295,
    "ose": 2296,
    " jog": 2297,
    " grate": 2298,
    " ducks": 2299,
    " spe": 2300,
    " legs": 2301,
    "ugg": 2302,
    " fil": 2303,
    " Bu": 2304,
    " emp": 2305,
    "mer": 2306,
    " hope": 2307,
    " empty": 2308,
    " slid": 2309,
    " feather": 2310,
    " sleepy": 2311,
    " drum": 2312,
    "amed": 2313,
    "ars": 2314,
    "eth": 2315,
    " zoo": 2316,
    " pan": 2317,
    " phone": 2318,
    " grateful": 2319,
    " fing": 2320,
    "ions": 2321,
    " lemon": 2322,
    "let": 2323,
    " Cat": 2324,
    " clever": 2325,
    " Molly": 2326,
    " smelly": 2327,
    " imag": 2328,
    " splash": 2329,
    " interesting": 2330,
    " Jill": 2331,
    " save": 2332,
    " chick": 2333,
    " calm": 2334,
    " med": 2335,
    " watching": 2336,
    "Soon": 2337,
    "izzy": 2338,
    "izz": 2339,
    " plate": 2340,
    " ign": 2341,
    "yard": 2342,
    " clouds": 2343,
    " banan": 2344,
    " line": 2345,
    " faces": 2346,
    " ba": 2347,
    " act": 2348,
    " lift": 2349,
    " though": 2350,
    " wolf": 2351,
    " backyard": 2352,
    "wel": 2353,
    " seemed": 2354,
    " dogs": 2355,
    " spray": 2356,
    "Come": 2357,
    " prot": 2358,
    " whole": 2359,
    " mot": 2360,
    " fancy": 2361,
    " Daddy": 2362,
    " quest": 2363,
    " arms": 2364,
    " puzzle": 2365,
    " healthy": 2366,
    " supp": 2367,
    "ward": 2368,
    " finish": 2369,
    "erly": 2370,
    " along": 2371,
    "llo": 2372,
    " rocket": 2373,
    " explain": 2374,
    "dge": 2375,
    " easy": 2376,
    " jewel": 2377,
    "ont": 2378,
    " pract": 2379,
    " jelly": 2380,
    " Chirpy": 2381,
    " tid": 2382,
    " fake": 2383,
    " crayons": 2384,
    " wondered": 2385,
    " maybe": 2386,
    " scar": 2387,
    " ship": 2388,
    " nothing": 2389,
    "onest": 2390,
    " emb": 2391,
    "iger": 2392,
    " pool": 2393,
    " longer": 2394,
    " anyone": 2395,
    " Be": 2396,
    " Jerry": 2397,
    "ually": 2398,
    " front": 2399,
    " working": 2400,
    " gives": 2401,
    "irr": 2402,
    " pack": 2403,
    " such": 2404,
    " Bunny": 2405,
    "ocked": 2406,
    "ment": 2407,
    " bossy": 2408,
    " Doggy": 2409,
    " trouble": 2410,
    " smelled": 2411,
    " saved": 2412,
    " pin": 2413,
    "rass": 2414,
    " neigh": 2415,
    "arrass": 2416,
    "iting": 2417,
    " honest": 2418,
    " av": 2419,
    "arge": 2420,
    " embarrass": 2421,
    " van": 2422,
    " forgive": 2423,
    " tidy": 2424,
    " weak": 2425,
    "urse": 2426,
    " puts": 2427,
    "unk": 2428,
    " kick": 2429,
    " shirt": 2430,
    " With": 2431,
    " mind": 2432,
    " Ollie": 2433,
    " neighb": 2434,
    " plants": 2435,
    " sol": 2436,
    " Momo": 2437,
    " gently": 2438,
    " cozy": 2439,
    "orrow": 2440,
    "ming": 2441,
    " explor": 2442,
    "sp": 2443,
    " mistake": 2444,
    " yog": 2445,
    "oc": 2446,
    "oomy": 2447,
    " pointed": 2448,
    " lad": 2449,
    " af": 2450,
    " stood": 2451,
    "ork": 2452,
    " onto": 2453,
    " waiting": 2454,
    " jumping": 2455,
    " prince": 2456,
    " cross": 2457,
    " lock": 2458,
    " cheer": 2459,
    " queen": 2460,
    " Why": 2461,
    " Mary": 2462,
    " wing": 2463,
    "ones": 2464,
    "we": 2465,
    " large": 2466,
    " lovely": 2467,
    "ult": 2468,
    " sur": 2469,
    " ret": 2470,
    "And": 2471,
    " deer": 2472,
    " chew": 2473,
    " couch": 2474,
    " bal": 2475,
    "aughter": 2476,
    " stret": 2477,
    "era": 2478,
    " Their": 2479,
    " places": 2480,
    " My": 2481,
    " ladder": 2482,
    "oof": 2483,
    " return": 2484,
    "raid": 2485,
    " ants": 2486,
    " dish": 2487,
    " afraid": 2488,
    " cleaned": 2489,
    " tomorrow": 2490,
    " building": 2491,
    " sandwich": 2492,
    " person": 2493,
    "Sally": 2494,
    "ned": 2495,
    " pretended": 2496,
    " bounce": 2497,
    " wip": 2498,
    "gest": 2499,
    " match": 2500,
    " rich": 2501,
    "uce": 2502,
    " pizz": 2503,
    " gather": 2504,
    " search": 2505,
    " boring": 2506,
    "oman": 2507,
    " Somet": 2508,
    " teeth": 2509,
    " hum": 2510,
    "Kitty": 2511,
    "My": 2512,
    "aced": 2513,
    " daughter": 2514,
    " woman": 2515,
    " scarf": 2516,
    " goes": 2517,
    " Together": 2518,
    " law": 2519,
    " stra": 2520,
    " swimming": 2521,
    " furry": 2522,
    " splashed": 2523,
    " pri": 2524,
    " loves": 2525,
    " true": 2526,
    " screamed": 2527,
    " lazy": 2528,
    " gen": 2529,
    " answer": 2530,
    " number": 2531,
    " eag": 2532,
    " ashamed": 2533,
    " pizza": 2534,
    "aw": 2535,
    " appeared": 2536,
    " fear": 2537,
    " nearby": 2538,
    " powerful": 2539,
    " flag": 2540,
    " St": 2541,
    " hang": 2542,
    "vous": 2543,
    " clown": 2544,
    "ek": 2545,
    " chase": 2546,
    " motor": 2547,
    " wand": 2548,
    " TV": 2549,
    " rub": 2550,
    " success": 2551,
    " chocol": 2552,
    " If": 2553,
    " creative": 2554,
    " trust": 2555,
    " wearing": 2556,
    " noisy": 2557,
    " matter": 2558,
    "pa": 2559,
    " dig": 2560,
    " hello": 2561,
    " ner": 2562,
    " tool": 2563,
    " saf": 2564,
    " Bird": 2565,
    "ado": 2566,
    " nervous": 2567,
    "elp": 2568,
    " test": 2569,
    " smiling": 2570,
    " sold": 2571,
    "icked": 2572,
    "oppy": 2573,
    "osaur": 2574,
    " circle": 2575,
    "mb": 2576,
    " map": 2577,
    " drank": 2578,
    " class": 2579,
    " tries": 2580,
    " chocolate": 2581,
    " Please": 2582,
    " impress": 2583,
    " knee": 2584,
    " gener": 2585,
    " dinosaur": 2586,
    " polite": 2587,
    " mirr": 2588,
    " Bobby": 2589,
    " Tiny": 2590,
    " balloons": 2591,
    " gold": 2592,
    " rare": 2593,
    " protect": 2594,
    " cand": 2595,
    "Stop": 2596,
    " carried": 2597,
    " Go": 2598,
    "ensive": 2599,
    " ap": 2600,
    " shadow": 2601,
    " mirror": 2602,
    " Don": 2603,
    " bald": 2604,
    " gun": 2605,
    "ina": 2606,
    " expensive": 2607,
    " reg": 2608,
    "iff": 2609,
    " mysterious": 2610,
    " Sp": 2611,
    " pump": 2612,
    " note": 2613,
    " hero": 2614,
    " march": 2615,
    " har": 2616,
    "arl": 2617,
    " icy": 2618,
    " respect": 2619,
    " weird": 2620,
    " snee": 2621,
    " cri": 2622,
    " gate": 2623,
    " soap": 2624,
    "rag": 2625,
    "ute": 2626,
    "issors": 2627,
    " these": 2628,
    " poor": 2629,
    " towel": 2630,
    " whale": 2631,
    " feet": 2632,
    " tape": 2633,
    " dizzy": 2634,
    "itter": 2635,
    " generous": 2636,
    "ndpa": 2637,
    " pres": 2638,
    " Benny": 2639,
    "nic": 2640,
    " disco": 2641,
    "Help": 2642,
    "ventually": 2643,
    " picnic": 2644,
    " mic": 2645,
    " lead": 2646,
    " sque": 2647,
    " embarrassed": 2648,
    " journey": 2649,
    " sugar": 2650,
    "isp": 2651,
    "scape": 2652,
    " boot": 2653,
    " tent": 2654,
    " peaceful": 2655,
    " fat": 2656,
    " Bear": 2657,
    " scissors": 2658,
    " tasted": 2659,
    " yelled": 2660,
    "Tommy": 2661,
    " tick": 2662,
    " mel": 2663,
    " brush": 2664,
    " dancing": 2665,
    "ness": 2666,
    " glue": 2667,
    " hur": 2668,
    " rough": 2669,
    " clap": 2670,
    " bridge": 2671,
    "ote": 2672,
    " decor": 2673,
    " closet": 2674,
    " crown": 2675,
    " stir": 2676,
    "ual": 2677,
    "imp": 2678,
    " print": 2679,
    " Sometimes": 2680,
    "owed": 2681,
    "airs": 2682,
    " How": 2683,
    "ume": 2684,
    " cap": 2685,
    " lamp": 2686,
    " vase": 2687,
    " scare": 2688,
    "lebr": 2689,
    " relie": 2690,
    "lves": 2691,
    "any": 2692,
    " eld": 2693,
    " tele": 2694,
    " celebr": 2695,
    " gigg": 2696,
    " whisp": 2697,
    " log": 2698,
    " sco": 2699,
    " blow": 2700,
    " painted": 2701,
    " Ducky": 2702,
    " pay": 2703,
    "erries": 2704,
    " wis": 2705,
    " berries": 2706,
    " mixed": 2707,
    " spread": 2708,
    " wouldn": 2709,
    " cage": 2710,
    " bake": 2711,
    "rob": 2712,
    "getable": 2713,
    " mountain": 2714,
    " adm": 2715,
    " drawing": 2716,
    " become": 2717,
    " famous": 2718,
    " knocked": 2719,
    " bean": 2720,
    " norm": 2721,
    " vegetable": 2722,
    "asp": 2723,
    " kicked": 2724,
    "ustr": 2725,
    " shark": 2726,
    "ser": 2727,
    " incred": 2728,
    " lose": 2729,
    " normal": 2730,
    " wrap": 2731,
    "ced": 2732,
    " group": 2733,
    " thick": 2734,
    " 3": 2735,
    " fine": 2736,
    " glass": 2737,
    " ignor": 2738,
    " clock": 2739,
    " team": 2740,
    " elderly": 2741,
    " clear": 2742,
    " corner": 2743,
    " frustr": 2744,
    " mighty": 2745,
    "robe": 2746,
    " cone": 2747,
    " incredible": 2748,
    " Br": 2749,
    "ighed": 2750,
    "Dad": 2751,
    " moms": 2752,
    " balance": 2753,
    " sock": 2754,
    " space": 2755,
    " jam": 2756,
    "ragile": 2757,
    " fright": 2758,
    " organized": 2759,
    " branches": 2760,
    " roar": 2761,
    "port": 2762,
    " sword": 2763,
    "alous": 2764,
    " Mama": 2765,
    " guess": 2766,
    " fool": 2767,
    " sell": 2768,
    " feed": 2769,
    " Some": 2770,
    " which": 2771,
    " horn": 2772,
    " present": 2773,
    " jealous": 2774,
    " yarn": 2775,
    "ony": 2776,
    " fragile": 2777,
    " burn": 2778,
    " understood": 2779,
    " mis": 2780,
    " stubb": 2781,
    " ter": 2782,
    " frustrated": 2783,
    "Where": 2784,
    "ray": 2785,
    " hose": 2786,
    "cient": 2787,
    " spent": 2788,
    " shoe": 2789,
    " taught": 2790,
    " stubborn": 2791,
    " twist": 2792,
    " creature": 2793,
    " chest": 2794,
    " spoiled": 2795,
    " relieved": 2796,
    " ancient": 2797,
    "ique": 2798,
    " wake": 2799,
    " fier": 2800,
    " pray": 2801,
    " fierce": 2802,
    " eggs": 2803,
    " cab": 2804,
    " terri": 2805,
    " barn": 2806,
    " pumpkin": 2807,
    " comfortable": 2808,
    " ord": 2809,
    "ym": 2810,
    " frightened": 2811,
    "orry": 2812,
    " toug": 2813,
    " unique": 2814,
    " measure": 2815,
    " goat": 2816,
    " wagon": 2817,
    " unus": 2818,
    " breath": 2819,
    " foolish": 2820,
    " useful": 2821,
    " exploring": 2822,
    "dle": 2823,
    " straw": 2824,
    " unusual": 2825,
    " dug": 2826,
    " clay": 2827,
    " discover": 2828,
    " tomato": 2829,
    " Pe": 2830,
    " dead": 2831,
    " finding": 2832,
    " police": 2833,
    " wrote": 2834,
    " clum": 2835,
    " exam": 2836,
    "lace": 2837,
    " waves": 2838,
    " square": 2839,
    " hears": 2840,
    " cabin": 2841,
    " tells": 2842,
    " necklace": 2843,
    " dull": 2844,
    " clumsy": 2845,
    " tough": 2846,
    " bubbles": 2847,
    " nosy": 2848,
    "kn": 2849,
    " searched": 2850,
    "Together": 2851,
    " washed": 2852,
    " bathroom": 2853,
    " paws": 2854,
    "bby": 2855,
    "ond": 2856,
    "unn": 2857,
    "anged": 2858,
    " board": 2859,
    "fic": 2860,
    "known": 2861,
    " asking": 2862,
    " crazy": 2863,
    " thankful": 2864,
    " sunf": 2865,
    " bitter": 2866,
    "yal": 2867,
    " pir": 2868,
    "berry": 2869,
    "alk": 2870,
    " ind": 2871,
    " diffic": 2872,
    " rose": 2873,
    "cil": 2874,
    " swan": 2875,
    " bloom": 2876,
    " unknown": 2877,
    " Ella": 2878,
    " covered": 2879,
    " difficult": 2880,
    " add": 2881,
    " pencil": 2882,
    " finger": 2883,
    " ham": 2884,
    " hoop": 2885,
    " jet": 2886,
    " witch": 2887,
    " drop": 2888,
    "Me": 2889,
    " '": 2890,
    " chicken": 2891,
    " gloomy": 2892,
    "apped": 2893,
    " loyal": 2894,
    "als": 2895,
    "Here": 2896,
    " wealthy": 2897,
    "com": 2898,
    "light": 2899,
    " unl": 2900,
    " cats": 2901,
    " ending": 2902,
    " guit": 2903,
    "bled": 2904,
    "shine": 2905,
    " dove": 2906,
    " joined": 2907,
    " cher": 2908,
    "anut": 2909,
    " mov": 2910,
    " terrible": 2911,
    " yours": 2912,
    "iant": 2913,
    " U": 2914,
    " Rex": 2915,
    " salad": 2916,
    " Andy": 2917,
    " nuts": 2918,
    " rat": 2919,
    "ground": 2920,
    " tiger": 2921,
    " potato": 2922,
    " mask": 2923,
    "xible": 2924,
    "selves": 2925,
    " value": 2926,
    " changed": 2927,
    " moving": 2928,
    " exciting": 2929,
    "ormous": 2930,
    " Many": 2931,
    " body": 2932,
    " Tr": 2933,
    " toast": 2934,
    " record": 2935,
    "erp": 2936,
    " zip": 2937,
    " disg": 2938,
    " cheap": 2939,
    " guitar": 2940,
    "irsty": 2941,
    " knowing": 2942,
    " adventur": 2943,
    " yourself": 2944,
    " enormous": 2945,
    " hairy": 2946,
    "Every": 2947,
    " shoot": 2948,
    " Brown": 2949,
    " bored": 2950,
    " pepper": 2951,
    " remind": 2952,
    "ory": 2953,
    "land": 2954,
    " acorn": 2955,
    " adventurous": 2956,
    " sunshine": 2957,
    " smaller": 2958,
    " stuff": 2959,
    " hats": 2960,
    " solve": 2961,
    " Jimmy": 2962,
    " flexible": 2963,
    " cost": 2964,
    "rilliant": 2965,
    " knife": 2966,
    " perform": 2967,
    " snacks": 2968,
    " nods": 2969,
    " shore": 2970,
    " brilliant": 2971,
    " thirsty": 2972,
    " delicate": 2973,
    " frown": 2974,
    " disgust": 2975,
    " collect": 2976,
    " stri": 2977,
    " seeds": 2978,
    " counted": 2979,
    " asleep": 2980,
    " banana": 2981,
    "reen": 2982,
    " mailbox": 2983,
    "iness": 2984,
    " dough": 2985,
    " trick": 2986,
    " neighbor": 2987,
    "ungle": 2988,
    " heal": 2989,
    "live": 2990,
    "Who": 2991,
    " stage": 2992,
    "ident": 2993,
    " market": 2994,
    " cube": 2995,
    " stat": 2996,
    " jungle": 2997,
    " squee": 2998,
    "mbre": 2999,
    " explained": 3000,
    "ates": 3001,
    " umbre": 3002,
    " disgusting": 3003,
    "Jim": 3004,
    "fted": 3005,
    " lab": 3006,
    " jolly": 3007,
    " flash": 3008,
    "und": 3009,
    " fridge": 3010,
    "inal": 3011,
    "pid": 3012,
    "ilt": 3013,
    " crane": 3014,
    "corn": 3015,
    " suit": 3016,
    " rh": 3017,
    "iddle": 3018,
    " sunflower": 3019,
    " times": 3020,
    " Al": 3021,
    "erpill": 3022,
    " caterpill": 3023,
    " relax": 3024,
    " shiver": 3025,
    " four": 3026,
    " island": 3027,
    "iginal": 3028,
    " harm": 3029,
    "ict": 3030,
    " While": 3031,
    "ying": 3032,
    " stupid": 3033,
    " medic": 3034,
    " Instead": 3035,
    " comb": 3036,
    " goose": 3037,
    " cro": 3038,
    "edient": 3039,
    " Will": 3040,
    " stove": 3041,
    "If": 3042,
    "Are": 3043,
    " independ": 3044,
    "Mum": 3045,
    "most": 3046,
    " spring": 3047,
    " gem": 3048,
    " batter": 3049,
    " sighed": 3050,
    " vegetables": 3051,
    " stones": 3052,
    "pes": 3053,
    " shine": 3054,
    "How": 3055,
    " medicine": 3056,
    " depend": 3057,
    " rug": 3058,
    " Your": 3059,
    " careless": 3060,
    " original": 3061,
    " stamp": 3062,
    " gar": 3063,
    " cries": 3064,
    "Inside": 3065,
    "gu": 3066,
    " carrots": 3067,
    " scr": 3068,
    " successful": 3069,
    " sauce": 3070,
    " jeep": 3071,
    " popcorn": 3072,
    " meal": 3073,
    " obedient": 3074,
    " almost": 3075,
    " middle": 3076,
    " magn": 3077,
    " study": 3078,
    " independent": 3079,
    " fearful": 3080,
    " jack": 3081,
    "met": 3082,
    "inky": 3083,
    "Sorry": 3084,
    " Sammy": 3085,
    " escape": 3086,
    " caterpillar": 3087,
    " serious": 3088,
    " peanut": 3089,
    " bedroom": 3090,
    " eager": 3091,
    "aken": 3092,
    " gets": 3093,
    " parrot": 3094,
    " statue": 3095,
    " helmet": 3096,
    " pebb": 3097,
    " No": 3098,
    " fountain": 3099,
    " raven": 3100,
    " ang": 3101,
    " pasta": 3102,
    " umbrella": 3103,
    " compet": 3104,
    "There": 3105,
    " jacket": 3106,
    " belonged": 3107,
    " dest": 3108,
    " filthy": 3109,
    " design": 3110,
    " borrow": 3111,
    " cam": 3112,
    "erable": 3113,
    " houses": 3114,
    " prize": 3115,
    " hay": 3116,
    " brace": 3117,
    " standing": 3118,
    " miserable": 3119,
    " raced": 3120,
    " taken": 3121,
    "ages": 3122,
    " fork": 3123,
    " crayon": 3124,
    " painting": 3125,
    "io": 3126,
    " triang": 3127,
    " impressive": 3128,
    " choose": 3129,
    " fig": 3130,
    " tied": 3131,
    "iable": 3132,
    " spotted": 3133,
    " lifted": 3134,
    " slipped": 3135,
    "ours": 3136,
    " tank": 3137,
    " thoughtful": 3138,
    " dependable": 3139,
    " steal": 3140,
    " garage": 3141,
    "enny": 3142,
    " built": 3143,
    " mush": 3144,
    " er": 3145,
    "ipe": 3146,
    " mole": 3147,
    " crawled": 3148,
    " scale": 3149,
    " boats": 3150,
    " pian": 3151,
    " pant": 3152,
    " hammer": 3153,
    " bottom": 3154,
    "lph": 3155,
    " cheerful": 3156,
    " using": 3157,
    " smoke": 3158,
    " picks": 3159,
    " moder": 3160,
    "berries": 3161,
    " shows": 3162,
    "rn": 3163,
    " piano": 3164,
    " magnet": 3165,
    "dile": 3166,
    "codile": 3167,
    " hurts": 3168,
    "inary": 3169,
    " ref": 3170,
    " crack": 3171,
    " eng": 3172,
    " aunt": 3173,
    " melon": 3174,
    " waff": 3175,
    " modern": 3176,
    " dolph": 3177,
    "unnel": 3178,
    "cream": 3179,
    "pack": 3180,
    " tunnel": 3181,
    "oin": 3182,
    " arrow": 3183,
    " reliable": 3184,
    " hopping": 3185,
    " mushroom": 3186,
    " jug": 3187,
    "Timmy": 3188,
    " squash": 3189,
    " gum": 3190,
    " sink": 3191,
    " movie": 3192,
    " tax": 3193,
    " flute": 3194,
    " beet": 3195,
    " lean": 3196,
    "Their": 3197,
    "iv": 3198,
    " popular": 3199,
    "opter": 3200,
    "icopter": 3201,
    " cryst": 3202,
    " ones": 3203,
    " sil": 3204,
    " competit": 3205,
    " helicopter": 3206,
    "aser": 3207,
    " needs": 3208,
    "ipop": 3209,
    "llipop": 3210,
    " crocodile": 3211,
    " liz": 3212,
    "Molly": 3213,
    " press": 3214,
    " troubled": 3215,
    " pige": 3216,
    " locked": 3217,
    " tricks": 3218,
    " lollipop": 3219,
    " playful": 3220,
    " humble": 3221,
    " taxi": 3222,
    " kissed": 3223,
    " low": 3224,
    "appy": 3225,
    "comfortable": 3226,
    "amond": 3227,
    " uncomfortable": 3228,
    " rid": 3229,
    "host": 3230,
    " wander": 3231,
    "atch": 3232,
    " angel": 3233,
    "edy": 3234,
    "cles": 3235,
    " torn": 3236,
    " grace": 3237,
    " anx": 3238,
    " wrapped": 3239,
    " muff": 3240,
    " twig": 3241,
    " pants": 3242,
    " disappoin": 3243,
    " Sn": 3244,
    " helps": 3245,
    " diamond": 3246,
    " camera": 3247,
    "atter": 3248,
    "oto": 3249,
    " anxious": 3250,
    " ghost": 3251,
    " tears": 3252,
    " ruined": 3253,
    "cident": 3254,
    " Jenny": 3255,
    "ilty": 3256,
    " quar": 3257,
    "aff": 3258,
    " Even": 3259,
    " fis": 3260,
    "opl": 3261,
    " belt": 3262,
    "eropl": 3263,
    " env": 3264,
    " guilty": 3265,
    " bull": 3266,
    " aeropl": 3267,
    " helpless": 3268,
    " happiness": 3269,
    " lizard": 3270,
    " boys": 3271,
    "cut": 3272,
    "ext": 3273,
    " cere": 3274,
    " walks": 3275,
    "cean": 3276,
    " passed": 3277,
    " meant": 3278,
    " ocean": 3279,
    " fluffy": 3280,
    " wire": 3281,
    " nail": 3282,
    " bracelet": 3283,
    " deaf": 3284,
    "zed": 3285,
    " stretch": 3286,
    " candle": 3287,
    " cact": 3288,
    "tt": 3289,
    " beetle": 3290,
    " mop": 3291,
    " harmless": 3292,
    "umpet": 3293,
    " ordinary": 3294,
    " answered": 3295,
    " collar": 3296,
    " cop": 3297,
    " bees": 3298,
    " tire": 3299,
    " shape": 3300,
    " quarrel": 3301,
    " radio": 3302,
    " flashlight": 3303,
    " crystal": 3304,
    " harder": 3305,
    " poured": 3306,
    " trumpet": 3307,
    " engine": 3308,
    "Mama": 3309,
    " persist": 3310,
    " hunt": 3311,
    " tooth": 3312,
    " cereal": 3313,
    " invited": 3314,
    " comput": 3315,
    " tag": 3316,
    " office": 3317,
    " melt": 3318,
    " spill": 3319,
    " charm": 3320,
    "coa": 3321,
    " lit": 3322,
    " scoot": 3323,
    " comet": 3324,
    " triangle": 3325,
    "ief": 3326,
    " mug": 3327,
    " rep": 3328,
    "ube": 3329,
    " yogurt": 3330,
    " spend": 3331,
    " compass": 3332,
    " accident": 3333,
    " shade": 3334,
    "hett": 3335,
    "aghett": 3336,
    "aghetti": 3337,
    " disappointed": 3338,
    " licked": 3339,
    " cactus": 3340,
    " pale": 3341,
    " cush": 3342,
    " figure": 3343,
    " regular": 3344,
    " giving": 3345,
    " avoc": 3346,
    " pro": 3347,
    " sheet": 3348,
    " whispered": 3349,
    "aze": 3350,
    "uth": 3351,
    "ellig": 3352,
    " create": 3353,
    " barber": 3354,
    " intellig": 3355,
    " pipe": 3356,
    " rode": 3357,
    " roof": 3358,
    "Jane": 3359,
    " thread": 3360,
    "ither": 3361,
    " vi": 3362,
    " load": 3363,
    " libr": 3364,
    " gifted": 3365,
    "ccol": 3366,
    " practiced": 3367,
    " delight": 3368,
    "ccoli": 3369,
    " harsh": 3370,
    "asses": 3371,
    " pow": 3372,
    " dust": 3373,
    " True": 3374,
    " bicy": 3375,
    "azz": 3376,
    " spaghetti": 3377,
    " compassion": 3378,
    " sailed": 3379,
    "urkey": 3380,
    "ubby": 3381,
    " forward": 3382,
    " persistent": 3383,
    " speed": 3384,
    " mitten": 3385,
    " cocoa": 3386,
    " envel": 3387,
    " questions": 3388,
    " computer": 3389,
    " coo": 3390,
    " feathers": 3391,
    "hip": 3392,
    " glove": 3393,
    "ging": 3394,
    "Bobo": 3395,
    " rice": 3396,
    " shrimp": 3397,
    " desk": 3398,
    " stream": 3399,
    " inse": 3400,
    " pigeon": 3401,
    " charming": 3402,
    " ears": 3403,
    " carp": 3404,
    "lcan": 3405,
    " raft": 3406,
    " envious": 3407,
    " knot": 3408,
    " turkey": 3409,
    " stronger": 3410,
    "omes": 3411,
    " coins": 3412,
    " tap": 3413,
    "lcano": 3414,
    "weet": 3415,
    " trap": 3416,
    "umbers": 3417,
    " aeroplane": 3418,
    " trunk": 3419,
    " wheat": 3420,
    " boxes": 3421,
    " chubby": 3422,
    " carpet": 3423,
    " restless": 3424,
    " intelligent": 3425,
    " tube": 3426,
    " spun": 3427,
    " dreams": 3428,
    " friendship": 3429,
    "ulif": 3430,
    "olin": 3431,
    " half": 3432,
    " loop": 3433,
    " crawl": 3434,
    " broccoli": 3435,
    " onion": 3436,
    " deliver": 3437,
    "anger": 3438,
    " acce": 3439,
    " vide": 3440,
    " volcano": 3441,
    " Jake": 3442,
    " sle": 3443,
    " track": 3444,
    " bri": 3445,
    " caulif": 3446,
    " vine": 3447,
    "ye": 3448,
    " ticket": 3449,
    " thief": 3450,
    "essie": 3451,
    "cycle": 3452,
    " louder": 3453,
    " insect": 3454,
    " numbers": 3455,
    "asing": 3456,
    " yaw": 3457,
    " haircut": 3458,
    "ital": 3459,
    " sleeping": 3460,
    " mill": 3461,
    " eventually": 3462,
    " alert": 3463,
    " excite": 3464,
    " pebble": 3465,
    " hosp": 3466,
    " attract": 3467,
    " planet": 3468,
    " Today": 3469,
    " univer": 3470,
    "isted": 3471,
    "ulu": 3472,
    " hospital": 3473,
    " eraser": 3474,
    " returned": 3475,
    " destro": 3476,
    " graceful": 3477,
    " happening": 3478,
    "ache": 3479,
    " OK": 3480,
    " Emily": 3481,
    " decide": 3482,
    " learning": 3483,
    " screen": 3484,
    "rework": 3485,
    " nicely": 3486,
    " leop": 3487,
    " cauliflower": 3488,
    " competitive": 3489,
    " poem": 3490,
    " celebrate": 3491,
    " curt": 3492,
    " peach": 3493,
    " soldier": 3494,
    " saus": 3495,
    " parade": 3496,
    "atient": 3497,
    " attractive": 3498,
    " curtain": 3499,
    " dolphin": 3500,
    " base": 3501,
    " violin": 3502,
    " ways": 3503,
    "Go": 3504,
    "ats": 3505,
    " travel": 3506,
    "ten": 3507,
    " rod": 3508,
    " ignorant": 3509,
    "ulb": 3510,
    " wheels": 3511,
    " yach": 3512,
    " scatter": 3513,
    " deter": 3514,
    " compassionate": 3515,
    " barrel": 3516,
    " envelope": 3517,
    " bubble": 3518,
    " lying": 3519,
    " firework": 3520,
    " sort": 3521,
    " question": 3522,
    "zzy": 3523,
    " Pipp": 3524,
    " scooter": 3525,
    " determ": 3526,
    " rag": 3527,
    " thu": 3528,
    " bicycle": 3529,
    "elery": 3530,
    " needle": 3531,
    " Fr": 3532,
    " judge": 3533,
    " bulb": 3534,
    " leopard": 3535,
    " tem": 3536,
    " yacht": 3537,
    " pony": 3538,
    " cricket": 3539,
    " order": 3540,
    " homes": 3541,
    " ador": 3542,
    "tern": 3543,
    " truth": 3544,
    " hook": 3545,
    "dom": 3546,
    " rubbed": 3547,
    "ete": 3548,
    "igator": 3549,
    " bushes": 3550,
    "Sarah": 3551,
    " uncle": 3552,
    " cushion": 3553,
    " spell": 3554,
    " grown": 3555,
    " cooked": 3556,
    " adorable": 3557,
    " chalk": 3558,
    " soar": 3559,
    " purse": 3560,
    " skin": 3561,
    " themselves": 3562,
    " impatient": 3563,
    " celery": 3564,
    " tray": 3565,
    " shells": 3566,
    " pengu": 3567,
    " sniff": 3568,
    " prun": 3569,
    " walls": 3570,
    " seal": 3571,
    " lively": 3572,
    " case": 3573,
    " alligator": 3574,
    " distant": 3575,
    " radish": 3576,
    " saying": 3577,
    " speak": 3578,
    " motorcycle": 3579,
    " meat": 3580,
    " send": 3581,
    "illa": 3582,
    " spinning": 3583,
    " forth": 3584,
    " counting": 3585,
    " enth": 3586,
    " bounced": 3587,
    " chain": 3588,
    " ed": 3589,
    " cleaning": 3590,
    "ebra": 3591,
    " film": 3592,
    " slept": 3593,
    " pit": 3594,
    " surf": 3595,
    " marry": 3596,
    "usia": 3597,
    " wallet": 3598,
    " enthusia": 3599,
    " metal": 3600,
    "urb": 3601,
    "ebook": 3602,
    " bin": 3603,
    " week": 3604,
    " notebook": 3605,
    " wiped": 3606,
    " skip": 3607,
    "ision": 3608,
    "chair": 3609,
    " biggest": 3610,
    " impro": 3611,
    " avocado": 3612,
    " behave": 3613,
    " destroy": 3614,
    "vator": 3615,
    " bandage": 3616,
    " laughs": 3617,
    " steak": 3618,
    " pattern": 3619,
    " Sh": 3620,
    " post": 3621,
    " elevator": 3622,
    " Buzz": 3623,
    "usie": 3624,
    " dive": 3625,
    " shut": 3626,
    " skipped": 3627,
    " unlock": 3628,
    " diary": 3629,
    "dest": 3630,
    "ject": 3631,
    " zebra": 3632,
    " bags": 3633,
    "ating": 3634,
    " armchair": 3635,
    "rage": 3636,
    "aged": 3637,
    " disturb": 3638,
    " oy": 3639,
    " pole": 3640,
    " showing": 3641,
    " gathered": 3642,
    " club": 3643,
    " nurse": 3644,
    "bul": 3645,
    " earth": 3646,
    " enc": 3647,
    " stranger": 3648,
    " sweater": 3649,
    " jellyfish": 3650,
    " screw": 3651,
    " temp": 3652,
    " Poppy": 3653,
    " compl": 3654,
    " mixer": 3655,
    "Give": 3656,
    " skull": 3657,
    " lime": 3658,
    " bump": 3659,
    "bulance": 3660,
    " ambulance": 3661,
    "nam": 3662,
    " father": 3663,
    " journal": 3664,
    "Gra": 3665,
    " loudly": 3666,
    "ito": 3667,
    " folder": 3668,
    " shield": 3669,
    " Bet": 3670,
    " Lulu": 3671,
    " library": 3672,
    " Peter": 3673,
    " buttons": 3674,
    " playground": 3675,
    " trucks": 3676,
    " ink": 3677,
    " lights": 3678,
    " tummy": 3679,
    " pointing": 3680,
    " city": 3681,
    " decorate": 3682,
    " station": 3683,
    "irit": 3684,
    " prep": 3685,
    " falls": 3686,
    "quito": 3687,
    " Polly": 3688,
    "Billy": 3689,
    " fu": 3690,
    " Fo": 3691,
    "ention": 3692,
    "nger": 3693,
    " Birdy": 3694,
    "lies": 3695,
    " herb": 3696,
    "nament": 3697,
    " ornament": 3698,
    " modest": 3699,
    " guard": 3700,
    " mos": 3701,
    " knows": 3702,
    " cord": 3703,
    " polish": 3704,
    " marble": 3705,
    "oby": 3706,
    " mosquito": 3707,
    "umbled": 3708,
    " salt": 3709,
    " attic": 3710,
    " whenever": 3711,
    " vest": 3712,
    "ctop": 3713,
    " resc": 3714,
    " yet": 3715,
    " ple": 3716,
    " disappeared": 3717,
    "ceed": 3718,
    " strawberry": 3719,
    " once": 3720,
    " Mum": 3721,
    " kay": 3722,
    " brothers": 3723,
    " itch": 3724,
    " pirate": 3725,
    " football": 3726,
    " split": 3727,
    "kele": 3728,
    "keleton": 3729,
    " hipp": 3730,
    " aut": 3731,
    " led": 3732,
    "uring": 3733,
    "ctopus": 3734,
    " driving": 3735,
    " cable": 3736,
    " support": 3737,
    " calling": 3738,
    " cupboard": 3739,
    "aky": 3740,
    "ushed": 3741,
    " wishes": 3742,
    " complet": 3743,
    " tripped": 3744,
    " root": 3745,
    " kayak": 3746,
    " octopus": 3747,
    "obile": 3748,
    " added": 3749,
    " edge": 3750,
    " mild": 3751,
    "stic": 3752,
    " determined": 3753,
    " succeed": 3754,
    "?\".": 3755,
    " reading": 3756,
    "omobile": 3757,
    " coal": 3758,
    "Well": 3759,
    "gl": 3760,
    "utes": 3761,
    "par": 3762,
    " suggest": 3763,
    " stack": 3764,
    " thunder": 3765,
    " kindness": 3766,
    " automobile": 3767,
    " complain": 3768,
    " enthusiastic": 3769,
    " sneeze": 3770,
    " cartoon": 3771,
    " yoga": 3772,
    " Little": 3773,
    " growl": 3774,
    "htub": 3775,
    " flea": 3776,
    "la": 3777,
    " meadow": 3778,
    " drawer": 3779,
    " bathtub": 3780,
    " ribb": 3781,
    "ophone": 3782,
    " means": 3783,
    " hall": 3784,
    " golf": 3785,
    " skeleton": 3786,
    " math": 3787,
    " veil": 3788,
    " hunter": 3789,
    " gor": 3790,
    " flame": 3791,
    " poke": 3792,
    " video": 3793,
    " chess": 3794,
    " troph": 3795,
    " cups": 3796,
    " glowing": 3797,
    " matt": 3798,
    " oyster": 3799,
    "work": 3800,
    " penny": 3801,
    " spear": 3802,
    " itself": 3803,
    " drawings": 3804,
    " hippo": 3805,
    " repair": 3806,
    " switch": 3807,
    "glasses": 3808,
    " sunglasses": 3809,
    " teleph": 3810,
    " costume": 3811,
    " dess": 3812,
    " zipp": 3813,
    ",\u201d": 3814,
    " repe": 3815,
    " muffin": 3816,
    " arg": 3817,
    " pastry": 3818,
    " pun": 3819,
    " rolling": 3820,
    " minutes": 3821,
    " packed": 3822,
    " makeup": 3823,
    "iron": 3824,
    "ric": 3825,
    " People": 3826,
    " waffle": 3827,
    "case": 3828,
    " handle": 3829,
    " pear": 3830,
    " maze": 3831,
    " telephone": 3832,
    " pine": 3833,
    "ait": 3834,
    " gear": 3835,
    " hedge": 3836,
    " mattress": 3837,
    " package": 3838,
    "aving": 3839,
    " Miss": 3840,
    " shocked": 3841,
    "ines": 3842,
    " trophy": 3843,
    " powder": 3844,
    " knight": 3845,
    " cob": 3846,
    " missile": 3847,
    " managed": 3848,
    " frame": 3849,
    " encou": 3850,
    " wife": 3851,
    " ok": 3852,
    " separ": 3853,
    "web": 3854,
    " stairs": 3855,
    " rot": 3856,
    " camp": 3857,
    "urch": 3858,
    "rophone": 3859,
    " magaz": 3860,
    " strugg": 3861,
    " colour": 3862,
    " grapes": 3863,
    "time": 3864,
    " file": 3865,
    "head": 3866,
    " Tina": 3867,
    " basketball": 3868,
    "Bye": 3869,
    "old": 3870,
    "per": 3871,
    " cobweb": 3872,
    "Re": 3873,
    "Jimmy": 3874,
    " Tweet": 3875,
    "See": 3876,
    " perm": 3877,
    " wool": 3878,
    " Dan": 3879,
    " microphone": 3880,
    "esday": 3881,
    " eye": 3882,
    " leash": 3883,
    " gasp": 3884,
    "iew": 3885,
    "keep": 3886,
    " weep": 3887,
    " barking": 3888,
    "ature": 3889,
    " safely": 3890,
    " tear": 3891,
    " view": 3892,
    "ffe": 3893,
    " slides": 3894,
    " steps": 3895,
    "istol": 3896,
    "ffee": 3897,
    " bananas": 3898,
    " staff": 3899,
    " spirit": 3900,
    " task": 3901,
    " giggled": 3902,
    " hoc": 3903,
    " hockey": 3904,
    " vend": 3905,
    " those": 3906,
    " gorilla": 3907,
    "Jill": 3908,
    " cooler": 3909,
    " Rose": 3910,
    "was": 3911,
    "cing": 3912,
    " early": 3913,
    " marched": 3914,
    "rosc": 3915,
    " mint": 3916,
    " Look": 3917,
    "washer": 3918,
    " flour": 3919,
    " hotel": 3920,
    "hic": 3921,
    " sailor": 3922,
    " dessert": 3923,
    " photo": 3924,
    "roscope": 3925,
    " vehic": 3926,
    "ilot": 3927,
    " often": 3928,
    " church": 3929,
    " Pete": 3930,
    " cooking": 3931,
    " remain": 3932,
    " five": 3933,
    " sausage": 3934,
    "otter": 3935,
    " ten": 3936,
    " tools": 3937,
    " medal": 3938,
    " either": 3939,
    " fireman": 3940,
    "chor": 3941,
    " grandpa": 3942,
    " otter": 3943,
    " baseball": 3944,
    " pretending": 3945,
    " pistol": 3946,
    " dishwasher": 3947,
    " rever": 3948,
    " organize": 3949,
    " pee": 3950,
    " vendor": 3951,
    " knock": 3952,
    " sight": 3953,
    " grill": 3954,
    " temple": 3955,
    " battery": 3956,
    " thinking": 3957,
    " opens": 3958,
    " ow": 3959,
    " realised": 3960,
    " iron": 3961,
    " laser": 3962,
    " sne": 3963,
    " sandbox": 3964,
    " oil": 3965,
    " patch": 3966,
    " hours": 3967,
    " rise": 3968,
    " whip": 3969,
    "'d": 3970,
    "ctory": 3971,
    " Give": 3972,
    " anchor": 3973,
    " trash": 3974,
    "ense": 3975,
    " short": 3976,
    "ney": 3977,
    " Betty": 3978,
    " rhin": 3979,
    " factory": 3980,
    "seum": 3981,
    " may": 3982,
    " ward": 3983,
    "ately": 3984,
    " cardboard": 3985,
    "ugged": 3986,
    " lotion": 3987,
    "Al": 3988,
    " message": 3989,
    " valu": 3990,
    " wardrobe": 3991,
    " cell": 3992,
    " museum": 3993,
    "apers": 3994,
    " ur": 3995,
    "ination": 3996,
    " hanging": 3997,
    "ucet": 3998,
    "ailable": 3999,
    " Sunny": 4000,
    " Zoom": 4001,
    " hive": 4002,
    "eer": 4003,
    " towers": 4004,
    "keeper": 4005,
    " blackboard": 4006,
    " mem": 4007,
    " excitement": 4008,
    " coffee": 4009,
    " pilot": 4010,
    "ready": 4011,
    "Fluffy": 4012,
    " napkin": 4013,
    " penguin": 4014,
    "ron": 4015,
    " check": 4016,
    " reward": 4017,
    "loo": 4018,
    " quit": 4019,
    " Pippin": 4020,
    " cane": 4021,
    " picking": 4022,
    "place": 4023,
    " Snow": 4024,
    "azor": 4025,
    " faucet": 4026,
    " ig": 4027,
    " passport": 4028,
    " Rob": 4029,
    " stumbled": 4030,
    " dreamed": 4031,
    " igloo": 4032,
    " Bessie": 4033,
    "aroo": 4034,
    "angaroo": 4035,
    " freez": 4036,
    " juicy": 4037,
    " allowed": 4038,
    "play": 4039,
    " holds": 4040,
    " already": 4041,
    " available": 4042,
    " sett": 4043,
    " bathe": 4044,
    " tornado": 4045,
    "imney": 4046,
    " fingers": 4047,
    "htray": 4048,
    " hanger": 4049,
    " newsp": 4050,
    " size": 4051,
    " laund": 4052,
    " lend": 4053,
    " chimney": 4054,
    " laundry": 4055,
    " oak": 4056,
    " fisher": 4057,
    " kangaroo": 4058,
    " men": 4059,
    " Everywhere": 4060,
    " telling": 4061,
    "Em": 4062,
    " novel": 4063,
    "body": 4064,
    " mummy": 4065,
    " pal": 4066,
    " mule": 4067,
    " cherries": 4068,
    " notice": 4069,
    " practice": 4070,
    " spilled": 4071,
    " reind": 4072,
    " complete": 4073,
    " enjoying": 4074,
    " microscope": 4075,
    "arian": 4076,
    "ampoo": 4077,
    " gain": 4078,
    " sub": 4079,
    " fireplace": 4080,
    " imagine": 4081,
    "anda": 4082,
    " display": 4083,
    "ocer": 4084,
    " Zip": 4085,
    " fastest": 4086,
    " magazine": 4087,
    " hurry": 4088,
    " cabinet": 4089,
    " shrink": 4090,
    " ashtray": 4091,
    "Wait": 4092,
    " cows": 4093,
    " Spike": 4094,
    "Joe": 4095,
    "gen": 4096,
    " palace": 4097,
    " improve": 4098,
    "aches": 4099,
    " rake": 4100,
    " reindeer": 4101,
    " falling": 4102,
    "oceros": 4103,
    " skirt": 4104,
    "ured": 4105,
    " discovered": 4106,
    " stared": 4107,
    " roared": 4108,
    "aid": 4109,
    " silver": 4110,
    " tub": 4111,
    " trail": 4112,
    "Is": 4113,
    " miner": 4114,
    "come": 4115,
    " bill": 4116,
    "iction": 4117,
    " fog": 4118,
    " ax": 4119,
    "stairs": 4120,
    "ilet": 4121,
    " hut": 4122,
    " happier": 4123,
    " taller": 4124,
    "ictionary": 4125,
    " oats": 4126,
    " fisherman": 4127,
    " object": 4128,
    " por": 4129,
    "vision": 4130,
    " valuable": 4131,
    " shampoo": 4132,
    " holes": 4133,
    " offered": 4134,
    " boots": 4135,
    " rhinoceros": 4136,
    " names": 4137,
    " toilet": 4138,
    " climbing": 4139,
    " blin": 4140,
    "vice": 4141,
    "Ow": 4142,
    " stretched": 4143,
    "iest": 4144,
    " zipper": 4145,
    " listening": 4146,
    " sym": 4147,
    " bathrobe": 4148,
    "alend": 4149,
    " jewelry": 4150,
    " Here": 4151,
    " jokes": 4152,
    " television": 4153,
    " prov": 4154,
    " calend": 4155,
    " stops": 4156,
    " axe": 4157,
    " jumps": 4158,
    " fuel": 4159,
    "cu": 4160,
    " sparkly": 4161,
    " perfume": 4162,
    " Susie": 4163,
    " bury": 4164,
    "bol": 4165,
    "Mummy": 4166,
    "lu": 4167,
    " pressed": 4168,
    " Kim": 4169,
    "reek": 4170,
    " rece": 4171,
    "fa": 4172,
    " Toby": 4173,
    " neat": 4174,
    " creek": 4175,
    " popped": 4176,
    " opera": 4177,
    " calendar": 4178,
    " snap": 4179,
    " gasped": 4180,
    " attach": 4181,
    " symbol": 4182,
    " tuna": 4183,
    " Mar": 4184,
    " papers": 4185,
    "Mr": 4186,
    " unpack": 4187,
    " resist": 4188,
    " dictionary": 4189,
    " subway": 4190,
    " letters": 4191,
    " freezer": 4192,
    " chose": 4193,
    " pinch": 4194,
    "zag": 4195,
    " spoke": 4196,
    " anyway": 4197,
    " super": 4198,
    " porch": 4199,
    " helper": 4200,
    "affe": 4201,
    " bikes": 4202,
    " lie": 4203,
    "arry": 4204,
    "iches": 4205,
    " tightly": 4206,
    " comfort": 4207,
    " shaking": 4208,
    " bookcase": 4209,
    " son": 4210,
    " razor": 4211,
    "aurant": 4212,
    " sandwiches": 4213,
    " Are": 4214,
    "igzag": 4215,
    " weigh": 4216,
    " against": 4217,
    " stickers": 4218,
    " restaurant": 4219,
    " newspaper": 4220,
    " blouse": 4221,
    " vehicle": 4222,
    " swinging": 4223,
    " ped": 4224,
    " disag": 4225,
    " nature": 4226,
    " squirrels": 4227,
    "ival": 4228,
    " belongs": 4229,
    " swamp": 4230,
    " butterflies": 4231,
    " gym": 4232,
    "del": 4233,
    " inclu": 4234,
    " growing": 4235,
    " buckle": 4236,
    "omed": 4237,
    " stirred": 4238,
    " mustache": 4239,
    " billboard": 4240,
    "xy": 4241,
    " beep": 4242,
    "te": 4243,
    " alarm": 4244,
    " lightning": 4245,
    " lip": 4246,
    " fest": 4247,
    " hung": 4248,
    "utor": 4249,
    " distance": 4250,
    "ogn": 4251,
    " cards": 4252,
    " obser": 4253,
    " agree": 4254,
    "Little": 4255,
    " ext": 4256,
    " tease": 4257,
    " recogn": 4258,
    " rubber": 4259,
    "ik": 4260,
    " hate": 4261,
    "fast": 4262,
    "ef": 4263,
    "Ouch": 4264,
    " doesn": 4265,
    " musician": 4266,
    " advice": 4267,
    " beef": 4268,
    " serve": 4269,
    "aspoon": 4270,
    " sweetie": 4271,
    " model": 4272,
    "lter": 4273,
    " crib": 4274,
    " blueberries": 4275,
    " sofa": 4276,
    " circles": 4277,
    " breakfast": 4278,
    " tutor": 4279,
    "asis": 4280,
    " bookshe": 4281,
    " giraffe": 4282,
    "stri": 4283,
    " festival": 4284,
    " separate": 4285,
    " shelter": 4286,
    " gas": 4287,
    " airport": 4288,
    " olive": 4289,
    " rail": 4290,
    " bookshelf": 4291,
    " frogs": 4292,
    " teaspoon": 4293,
    " reverse": 4294,
    " junk": 4295,
    " riding": 4296,
    " pleased": 4297,
    " drain": 4298,
    " Mrs": 4299,
    " wipe": 4300,
    " oasis": 4301,
    " soil": 4302,
    " ahead": 4303,
    " rescue": 4304,
    " leaving": 4305,
    "ummer": 4306,
    " painter": 4307,
    " squeeze": 4308,
    " chance": 4309,
    " poked": 4310,
    " knob": 4311,
    " Teddy": 4312,
    " peeked": 4313,
    " lumber": 4314,
    " trains": 4315,
    " extra": 4316,
    " slipp": 4317,
    " quiz": 4318,
    " refused": 4319,
    "res": 4320,
    "rmomet": 4321,
    " page": 4322,
    " rules": 4323,
    " happens": 4324,
    " sounded": 4325,
    " ins": 4326,
    " point": 4327,
    " winter": 4328,
    " dancer": 4329,
    " Grandpa": 4330,
    " birdc": 4331,
    " disappear": 4332,
    "rmometer": 4333,
    " Dolly": 4334,
    " weather": 4335,
    " waste": 4336,
    " lic": 4337,
    " birdcage": 4338,
    " theater": 4339,
    " reef": 4340,
    " carrying": 4341,
    "Daisy": 4342,
    " invite": 4343,
    "iform": 4344,
    " goal": 4345,
    " ostri": 4346,
    " uniform": 4347,
    " swung": 4348,
    " trade": 4349,
    " cliff": 4350,
    "ience": 4351,
    " lawn": 4352,
    "ola": 4353,
    " leaned": 4354,
    " Pandy": 4355,
    "angu": 4356,
    " accept": 4357,
    " admire": 4358,
    " fort": 4359,
    " accidentally": 4360,
    " pastel": 4361,
    "bbles": 4362,
    " stom": 4363,
    " langu": 4364,
    " twir": 4365,
    " suff": 4366,
    " panda": 4367,
    "riger": 4368,
    " bet": 4369,
    "rigerator": 4370,
    " peek": 4371,
    "render": 4372,
    " blinked": 4373,
    " starts": 4374,
    "na": 4375,
    " refrigerator": 4376,
    " anywhere": 4377,
    "!\".": 4378,
    " imagined": 4379,
    " dreaming": 4380,
    " remove": 4381,
    "night": 4382,
    " shower": 4383,
    " Lee": 4384,
    " Co": 4385,
    " classroom": 4386,
    " ceiling": 4387,
    " caring": 4388,
    "ium": 4389,
    " grand": 4390,
    " missing": 4391,
    "aked": 4392,
    " license": 4393,
    " stable": 4394,
    " thermometer": 4395,
    " monkeys": 4396,
    "astic": 4397,
    " warned": 4398,
    " summer": 4399,
    " Where": 4400,
    " above": 4401,
    " brick": 4402,
    "ected": 4403,
    " cudd": 4404,
    " problems": 4405,
    "amber": 4406,
    " chasing": 4407,
    " label": 4408,
    " apron": 4409,
    " sent": 4410,
    "urnit": 4411,
    "urniture": 4412,
    " lawy": 4413,
    " lid": 4414,
    "uggage": 4415,
    "med": 4416,
    " respectful": 4417,
    " furniture": 4418,
    " frowned": 4419,
    " zoomed": 4420,
    " pages": 4421,
    " prevent": 4422,
    " bent": 4423,
    " luggage": 4424,
    " mistakes": 4425,
    " sunset": 4426,
    " ostrich": 4427,
    "ison": 4428,
    " suggested": 4429,
    " windows": 4430,
    "ations": 4431,
    " jail": 4432,
    "low": 4433,
    " wine": 4434,
    " ribbon": 4435,
    " older": 4436,
    " shouts": 4437,
    " grape": 4438,
    " Cl": 4439,
    " wigg": 4440,
    "ucture": 4441,
    " structure": 4442,
    " spoil": 4443,
    "eor": 4444,
    " fixing": 4445,
    " chamber": 4446,
    " lions": 4447,
    " delay": 4448,
    " finds": 4449,
    " handed": 4450,
    " searching": 4451,
    " unite": 4452,
    "Did": 4453,
    " fought": 4454,
    " lawyer": 4455,
    " brightly": 4456,
    " pair": 4457,
    " meeting": 4458,
    " choice": 4459,
    " surprises": 4460,
    " Ellie": 4461,
    " art": 4462,
    " Un": 4463,
    "Ch": 4464,
    " favour": 4465,
    "eterin": 4466,
    "eterinarian": 4467,
    "adium": 4468,
    " stadium": 4469,
    " proudly": 4470,
    "iki": 4471,
    " veterinarian": 4472,
    "vet": 4473,
    "rod": 4474,
    " chairs": 4475,
    " slip": 4476,
    " Spe": 4477,
    " sadly": 4478,
    " Bow": 4479,
    " incre": 4480,
    " Carl": 4481,
    " puddles": 4482,
    " berry": 4483,
    " introd": 4484,
    " ranch": 4485,
    "veal": 4486,
    " Boun": 4487,
    " argue": 4488,
    " V": 4489,
    " admired": 4490,
    " cur": 4491,
    " favourite": 4492,
    "Your": 4493,
    " inf": 4494,
    " excitedly": 4495,
    " rac": 4496,
    " grabs": 4497,
    "mend": 4498,
    " steam": 4499,
    "thank": 4500,
    " human": 4501,
    "eorge": 4502,
    "sity": 4503,
    " Hel": 4504,
    " pushing": 4505,
    " saving": 4506,
    " Red": 4507,
    " reveal": 4508,
    "ommend": 4509,
    "alley": 4510,
    " yield": 4511,
    "olog": 4512,
    " mall": 4513,
    " reminded": 4514,
    " recommend": 4515,
    " leak": 4516,
    " surrender": 4517,
    " harb": 4518,
    " appl": 4519,
    "cuss": 4520,
    "aul": 4521,
    " weap": 4522,
    " regret": 4523,
    " putting": 4524,
    " valley": 4525,
    " mineral": 4526,
    " evening": 4527,
    "elcome": 4528,
    " matches": 4529,
    " forgave": 4530,
    " sneezed": 4531,
    " pup": 4532,
    " aw": 4533,
    " rushed": 4534,
    "ecause": 4535,
    " spade": 4536,
    " apolog": 4537,
    " plates": 4538,
    " discuss": 4539,
    " prepare": 4540,
    " harbor": 4541,
    " ignore": 4542,
    " Big": 4543,
    " country": 4544,
    " language": 4545,
    " Buzzy": 4546,
    " pulls": 4547,
    " plastic": 4548,
    " supply": 4549,
    " float": 4550,
    " sniffed": 4551,
    " Jazz": 4552,
    " replace": 4553,
    " meas": 4554,
    " shovel": 4555,
    " Bill": 4556,
    " raise": 4557,
    " Next": 4558,
    " fre": 4559,
    " cared": 4560,
    " socks": 4561,
    " strip": 4562,
    " doors": 4563,
    " mystery": 4564,
    " lives": 4565,
    " restore": 4566,
    " sticker": 4567,
    " sudden": 4568,
    "ari": 4569,
    " kinds": 4570,
    " slippery": 4571,
    "ero": 4572,
    " Ow": 4573,
    " player": 4574,
    " panic": 4575,
    "ricane": 4576,
    " hoping": 4577,
    "iday": 4578,
    " shone": 4579,
    "lex": 4580,
    "hero": 4581,
    " beg": 4582,
    " Mike": 4583,
    " Binky": 4584,
    " superhero": 4585,
    " delighted": 4586,
    " gro": 4587,
    "Yay": 4588,
    "aud": 4589,
    "chan": 4590,
    " chickens": 4591,
    " shoulder": 4592,
    " rained": 4593,
    " colourful": 4594,
    " breat": 4595,
    " Alice": 4596,
    " claw": 4597,
    " Bubbles": 4598,
    "Yuck": 4599,
    " softly": 4600,
    "rise": 4601,
    " port": 4602,
    "Grandma": 4603,
    " hol": 4604,
    "icer": 4605,
    " holiday": 4606,
    " \ufffd": 4607,
    " barks": 4608,
    "ason": 4609,
    " throwing": 4610,
    " planes": 4611,
    "Mary": 4612,
    " bend": 4613,
    " Freddy": 4614,
    " shakes": 4615,
    " infant": 4616,
    " ended": 4617,
    " shivering": 4618,
    " kneel": 4619,
    " sunrise": 4620,
    " pushes": 4621,
    " Olive": 4622,
    " thanks": 4623,
    " fresh": 4624,
    " suffer": 4625,
    " points": 4626,
    "imed": 4627,
    "wards": 4628,
    " Pat": 4629,
    " tip": 4630,
    " Speedy": 4631,
    " freeze": 4632,
    " keeping": 4633,
    " Would": 4634,
    " giggle": 4635,
    " copper": 4636,
    " smells": 4637,
    " dear": 4638,
    " enter": 4639,
    " provide": 4640,
    "cast": 4641,
    "chanic": 4642,
    " dishes": 4643,
    " End": 4644,
    "cond": 4645,
    " unh": 4646,
    "Next": 4647,
    " applaud": 4648,
    " heads": 4649,
    " hurricane": 4650,
    " cherry": 4651,
    " thumb": 4652,
    " menu": 4653,
    " meowed": 4654,
    " mass": 4655,
    " second": 4656,
    " brighter": 4657,
    "ince": 4658,
    " sandcast": 4659,
    " mechanic": 4660,
    " wre": 4661,
    " sprayed": 4662,
    " letting": 4663,
    " event": 4664,
    " weapon": 4665,
    " laught": 4666,
    " x": 4667,
    " laughter": 4668,
    " clapping": 4669,
    " feelings": 4670,
    "Will": 4671,
    "icky": 4672,
    " splashing": 4673,
    "ement": 4674,
    " Or": 4675,
    "acked": 4676,
    " castles": 4677,
    " Fl": 4678,
    "cer": 4679,
    " score": 4680,
    "apping": 4681,
    " universe": 4682,
    " navy": 4683,
    " dem": 4684,
    " sticky": 4685,
    "ophie": 4686,
    " rooms": 4687,
    " row": 4688,
    " flies": 4689,
    "igi": 4690,
    " Dave": 4691,
    " unhappy": 4692,
    " greedy": 4693,
    " dare": 4694,
    " alive": 4695,
    " breaks": 4696,
    " ener": 4697,
    " courage": 4698,
    " invit": 4699,
    "Ready": 4700,
    " repeat": 4701,
    " demand": 4702,
    " trusted": 4703,
    "Lisa": 4704,
    " somewhere": 4705,
    "arlie": 4706,
    " prune": 4707,
    "bles": 4708,
    " wreck": 4709,
    " Y": 4710,
    " skill": 4711,
    " examine": 4712,
    " parts": 4713,
    "year": 4714,
    " eaten": 4715,
    "oe": 4716,
    "All": 4717,
    "erc": 4718,
    "enry": 4719,
    " mention": 4720,
    " raining": 4721,
    " Help": 4722,
    "Buddy": 4723,
    " throws": 4724,
    " jogged": 4725,
    "quest": 4726,
    " starting": 4727,
    " rush": 4728,
    " poison": 4729,
    " pirates": 4730,
    "heart": 4731,
    " vac": 4732,
    " content": 4733,
    "Emma": 4734,
    " Kiki": 4735,
    " sigh": 4736,
    " flapped": 4737,
    " drops": 4738,
    " chirp": 4739,
    " sport": 4740,
    "Qu": 4741,
    " sparkled": 4742,
    " Zoomy": 4743,
    " given": 4744,
    " streng": 4745,
    " steel": 4746,
    "Ann": 4747,
    " bumped": 4748,
    " yawned": 4749,
    " stud": 4750,
    " request": 4751,
    " scold": 4752,
    " myself": 4753,
    " strength": 4754,
    " shrugged": 4755,
    "Mark": 4756,
    " coats": 4757,
    " punish": 4758,
    " equ": 4759,
    " snugg": 4760,
    " university": 4761,
    " paid": 4762,
    " Johnny": 4763,
    " pigs": 4764,
    " scratch": 4765,
    " toe": 4766,
    " exerc": 4767,
    " tracks": 4768,
    " upstairs": 4769,
    " prayed": 4770,
    " crossed": 4771,
    " squeezed": 4772,
    " impressed": 4773,
    " flood": 4774,
    " bouncing": 4775,
    " Ru": 4776,
    "Alice": 4777,
    " rabbits": 4778,
    "ges": 4779,
    " badly": 4780,
    "..": 4781,
    " warn": 4782,
    " leather": 4783,
    " expect": 4784,
    " news": 4785,
    " tide": 4786,
    " Ted": 4787,
    " minute": 4788,
    " bears": 4789,
    " claws": 4790,
    " buzz": 4791,
    " sweetheart": 4792,
    " Sm": 4793,
    "yth": 4794,
    " nation": 4795,
    "Sh": 4796,
    "ythm": 4797,
    " vacation": 4798,
    " hist": 4799,
    " heat": 4800,
    " strawberries": 4801,
    " observe": 4802,
    " explored": 4803,
    " settle": 4804,
    " sandcastle": 4805,
    " yawn": 4806,
    " history": 4807,
    " Lilly": 4808,
    " Lola": 4809,
    "mare": 4810,
    " Mummy": 4811,
    " Sque": 4812,
    "ially": 4813,
    "inking": 4814,
    " believed": 4815,
    " horses": 4816,
    "Daddy": 4817,
    " Hoppy": 4818,
    " checked": 4819,
    " Mandy": 4820,
    " tour": 4821,
    " network": 4822,
    " cheek": 4823,
    " Under": 4824,
    " offer": 4825,
    " easily": 4826,
    " placed": 4827,
    "spec": 4828,
    " spots": 4829,
    " snowball": 4830,
    "ween": 4831,
    "men": 4832,
    " energy": 4833,
    " Bee": 4834,
    " imagination": 4835,
    " blueberry": 4836,
    "otten": 4837,
    " between": 4838,
    "specially": 4839,
    " Gigi": 4840,
    "izes": 4841,
    " daisy": 4842,
    " waving": 4843,
    "reeze": 4844,
    "reat": 4845,
    " vroom": 4846,
    " soak": 4847,
    " safari": 4848,
    " rhythm": 4849,
    " massage": 4850,
    " stomach": 4851,
    " baking": 4852,
    "quake": 4853,
    " nightmare": 4854,
    " insisted": 4855,
    " blowing": 4856,
    " entered": 4857,
    "Before": 4858,
    " stair": 4859,
    " palm": 4860,
    " beauty": 4861,
    " twisted": 4862,
    " bother": 4863,
    " writing": 4864,
    " scoop": 4865,
    " prunes": 4866,
    " brain": 4867,
    " ing": 4868,
    "ipment": 4869,
    " poppy": 4870,
    " hills": 4871,
    "noon": 4872,
    " afternoon": 4873,
    " equipment": 4874,
    " especially": 4875,
    "hest": 4876,
    " sir": 4877,
    " pad": 4878,
    " See": 4879,
    " ingred": 4880,
    " calls": 4881,
    " ingredient": 4882,
    " Fox": 4883,
    " earthquake": 4884,
    " ignored": 4885,
    " Snowy": 4886,
    " burned": 4887,
    " nobody": 4888,
    "mble": 4889,
    " sty": 4890,
    "apa": 4891,
    " sew": 4892,
    " tug": 4893,
    "isty": 4894,
    "xygen": 4895,
    " hearts": 4896,
    " lear": 4897,
    " learnt": 4898,
    " lemonade": 4899,
    " increase": 4900,
    "illie": 4901,
    "Jenny": 4902,
    " gaz": 4903,
    " backpack": 4904,
    " mailman": 4905,
    " whistled": 4906,
    " pedal": 4907,
    " Sk": 4908,
    "Fred": 4909,
    " shopkeeper": 4910,
    "ffic": 4911,
    " permit": 4912,
    " tremble": 4913,
    " yucky": 4914,
    "anges": 4915,
    " moves": 4916,
    " introduce": 4917,
    " lemons": 4918,
    " crash": 4919,
    " beans": 4920,
    " floated": 4921,
    "edn": 4922,
    "ednesday": 4923,
    "ittens": 4924,
    "Welcome": 4925,
    " planned": 4926,
    " strike": 4927,
    " traffic": 4928,
    " include": 4929,
    " slap": 4930,
    " racing": 4931,
    " Lucky": 4932,
    "resses": 4933,
    " wisdom": 4934,
    " pur": 4935,
    " wags": 4936,
    " Finny": 4937,
    "laimed": 4938,
    " George": 4939,
    " luck": 4940,
    " following": 4941,
    " \n": 4942,
    " price": 4943,
    "ecting": 4944,
    " mama": 4945,
    " pitch": 4946,
    " below": 4947,
    " Elly": 4948,
    " Have": 4949,
    "Le": 4950,
    " weight": 4951,
    " exclaimed": 4952,
    "house": 4953,
    " buried": 4954,
    " follows": 4955,
    " comf": 4956,
    " recognize": 4957,
    " ingredients": 4958,
    " furt": 4959,
    "tain": 4960,
    " candles": 4961,
    "Mimi": 4962,
    " marbles": 4963,
    "riage": 4964,
    "unday": 4965,
    "emember": 4966,
    "eration": 4967,
    " Alex": 4968,
    " apart": 4969,
    " Wednesday": 4970,
    " growled": 4971,
    "uct": 4972,
    " Su": 4973,
    "ores": 4974,
    " conf": 4975,
    " teaching": 4976,
    " hopes": 4977,
    " folded": 4978,
    " closely": 4979,
    " Finn": 4980,
    " Who": 4981,
    " heel": 4982,
    " Sunday": 4983,
    " encourage": 4984,
    " Paul": 4985,
    " Owl": 4986,
    " zigzag": 4987,
    " pulling": 4988,
    " digg": 4989,
    " bouncy": 4990,
    " further": 4991,
    " chewed": 4992,
    " digging": 4993,
    " winning": 4994,
    "Woof": 4995,
    "With": 4996,
    " dresses": 4997,
    " image": 4998,
    "rec": 4999,
    "cery": 5000,
    " shouting": 5001,
    " grocery": 5002,
    " twisty": 5003,
    " peanuts": 5004,
    " puzzles": 5005,
    "bbing": 5006,
    " Dog": 5007,
    "look": 5008,
    " scrat": 5009,
    " chores": 5010,
    " whisper": 5011,
    " Is": 5012,
    " spike": 5013,
    " Froggy": 5014,
    " cape": 5015,
    " snail": 5016,
    " acorns": 5017,
    " worms": 5018,
    "hood": 5019,
    " deeper": 5020,
    " urge": 5021,
    "ifi": 5022,
    " exper": 5023,
    " Whenever": 5024,
    " Tilly": 5025,
    " Squeaky": 5026,
    " Grace": 5027,
    " planted": 5028,
    " attention": 5029,
    "ecture": 5030,
    " exercise": 5031,
    " Danny": 5032,
    " cub": 5033,
    " operation": 5034,
    " underground": 5035,
    " hon": 5036,
    " agre": 5037,
    " quite": 5038,
    " creatures": 5039,
    " simp": 5040,
    "Everyone": 5041,
    " struggle": 5042,
    "oral": 5043,
    " Mittens": 5044,
    "ddy": 5045,
    " blood": 5046,
    " lecture": 5047,
    " washing": 5048,
    " hurting": 5049,
    " vanished": 5050,
    " gifts": 5051,
    " dressed": 5052,
    " invitation": 5053,
    " solved": 5054,
    " licks": 5055,
    " snuggled": 5056,
    " Sharing": 5057,
    "ippy": 5058,
    " ble": 5059,
    " marriage": 5060,
    " quietly": 5061,
    "gie": 5062,
    " warning": 5063,
    " jazz": 5064,
    " breathe": 5065,
    "reci": 5066,
    " elephants": 5067,
    " sizes": 5068,
    " dried": 5069,
    " fallen": 5070,
    " landscape": 5071,
    "ories": 5072,
    " sprink": 5073,
    " neighbour": 5074,
    " mice": 5075,
    "uesday": 5076,
    " appreci": 5077,
    " Sophie": 5078,
    " Joey": 5079,
    " \u2013": 5080,
    " eagerly": 5081,
    " sailing": 5082,
    " Coco": 5083,
    " paused": 5084,
    "ips": 5085,
    " counter": 5086,
    " Good": 5087,
    " Bounce": 5088,
    " Penny": 5089,
    " worth": 5090,
    "looking": 5091,
    " Rock": 5092,
    " oxygen": 5093,
    "Because": 5094,
    " release": 5095,
    " shined": 5096,
    "Not": 5097,
    "pted": 5098,
    " reaches": 5099,
    " balan": 5100,
    " Zara": 5101,
    "isses": 5102,
    " oh": 5103,
    " kisses": 5104,
    " style": 5105,
    " bricks": 5106,
    " plays": 5107,
    " glo": 5108,
    " Tuesday": 5109,
    " ideas": 5110,
    "sed": 5111,
    " inst": 5112,
    " wob": 5113,
    " fireworks": 5114,
    "Bella": 5115,
    "iggly": 5116,
    "ucked": 5117,
    " seeing": 5118,
    " flap": 5119,
    "ops": 5120,
    " accepted": 5121,
    "right": 5122,
    " Pip": 5123,
    "Today": 5124,
    " blink": 5125,
    "mm": 5126,
    " Ros": 5127,
    " tremb": 5128,
    "These": 5129,
    " muddy": 5130,
    " memory": 5131,
    " married": 5132,
    " tomatoes": 5133,
    " exit": 5134,
    " Annie": 5135,
    " wagging": 5136,
    " fash": 5137,
    "Remy": 5138,
    " Charlie": 5139,
    " wandered": 5140,
    "unately": 5141,
    "ipping": 5142,
    " gloves": 5143,
    " captain": 5144,
    " pillows": 5145,
    " receive": 5146,
    " resp": 5147,
    " Pinky": 5148,
    "raged": 5149,
    " during": 5150,
    " Everything": 5151,
    "etch": 5152,
    " web": 5153,
    " petals": 5154,
    " watered": 5155,
    " Eventually": 5156,
    " si": 5157,
    "ived": 5158,
    " manage": 5159,
    " pinched": 5160,
    " brings": 5161,
    " vanish": 5162,
    " cakes": 5163,
    " fashion": 5164,
    " Bluey": 5165,
    " printer": 5166,
    " destroyed": 5167,
    " treasures": 5168,
    "nce": 5169,
    " allow": 5170,
    "ups": 5171,
    " hadn": 5172,
    " worse": 5173,
    " Fifi": 5174,
    "Surpr": 5175,
    " vel": 5176,
    " hits": 5177,
    " bur": 5178,
    "xu": 5179,
    " velvet": 5180,
    " appear": 5181,
    " disagree": 5182,
    "do": 5183,
    " catching": 5184,
    " scattered": 5185,
    " Ro": 5186,
    " memories": 5187,
    " sorts": 5188,
    " Papa": 5189,
    " hers": 5190,
    " scolded": 5191,
    " signs": 5192,
    " pears": 5193,
    " oranges": 5194,
    " bones": 5195,
    " rang": 5196,
    " snapped": 5197,
    " sits": 5198,
    " seats": 5199,
    "uxu": 5200,
    " gazed": 5201,
    " raised": 5202,
    "Bl": 5203,
    " Maria": 5204,
    " zipped": 5205,
    " pies": 5206,
    " prints": 5207,
    " shot": 5208,
    " sliding": 5209,
    " God": 5210,
    " fro": 5211,
    " easier": 5212,
    "ssible": 5213,
    " skills": 5214,
    " climbs": 5215,
    " twirled": 5216,
    "ccer": 5217,
    " blankets": 5218,
    " forgotten": 5219,
    " baked": 5220,
    "ester": 5221,
    "Yum": 5222,
    "esterday": 5223,
    " difference": 5224,
    "orted": 5225,
    " luxu": 5226,
    " golden": 5227,
    "ising": 5228,
    " kitty": 5229,
    " Tw": 5230,
    " cutting": 5231,
    " season": 5232,
    "aggie": 5233,
    " nowhere": 5234,
    " crow": 5235,
    "ah": 5236,
    " soccer": 5237,
    " dared": 5238,
    " bites": 5239,
    " Henry": 5240,
    " Harry": 5241,
    "anny": 5242,
    " lung": 5243,
    " celebrated": 5244,
    "choo": 5245,
    "chie": 5246,
    " straight": 5247,
    " unlocked": 5248,
    "sters": 5249,
    " sorting": 5250,
    " collected": 5251,
    " bleed": 5252,
    "aped": 5253,
    "ding": 5254,
    " welcomed": 5255,
    " visited": 5256,
    " spoons": 5257,
    " ours": 5258,
    " stitch": 5259,
    " jogging": 5260,
    "Surprise": 5261,
    "medi": 5262,
    " emer": 5263,
    " Spark": 5264,
    "mediately": 5265,
    " isn": 5266,
    " tong": 5267,
    " trave": 5268,
    " winner": 5269,
    "umble": 5270,
    " since": 5271,
    " ruin": 5272,
    " prett": 5273,
    "Ok": 5274,
    "Moral": 5275,
    " Tony": 5276,
    " attached": 5277,
    " weeping": 5278,
    " marching": 5279,
    " luxury": 5280,
    " simple": 5281,
    " Each": 5282,
    " shouldn": 5283,
    " guessed": 5284,
    " zero": 5285,
    " created": 5286,
    " stuffed": 5287,
    " pets": 5288,
    "ction": 5289,
    " waist": 5290,
    " famil": 5291,
    " urged": 5292,
    " bowed": 5293,
    " selling": 5294,
    " floating": 5295,
    "rr": 5296,
    " Smith": 5297,
    " bye": 5298,
    " King": 5299,
    " vict": 5300,
    " kingdom": 5301,
    " olives": 5302,
    " kicking": 5303,
    " Wiggly": 5304,
    " punished": 5305,
    " Liz": 5306,
    " Baby": 5307,
    "sit": 5308,
    " toes": 5309,
    " grant": 5310,
    " muscles": 5311,
    " jewels": 5312,
    " Rosie": 5313,
    " beds": 5314,
    " melted": 5315,
    "Goodbye": 5316,
    " slice": 5317,
    " grin": 5318,
    " understanding": 5319,
    " collection": 5320,
    " tore": 5321,
    " measured": 5322,
    "aker": 5323,
    " cras": 5324,
    "omeday": 5325,
    "iers": 5326,
    " trapped": 5327,
    " lined": 5328,
    "'ve": 5329,
    " acted": 5330,
    "fortunately": 5331,
    " encouraged": 5332,
    "va": 5333,
    " Sandy": 5334,
    " received": 5335,
    " waffles": 5336,
    " Before": 5337,
    " Wally": 5338,
    " west": 5339,
    " meow": 5340,
    "ents": 5341,
    " patterns": 5342,
    "rin": 5343,
    "ino": 5344,
    " brus": 5345,
    "eath": 5346,
    " mouths": 5347,
    "kins": 5348,
    " bang": 5349,
    "ring": 5350,
    " Kate": 5351,
    "Meow": 5352,
    " peaches": 5353,
    " breeze": 5354,
    "aded": 5355,
    "une": 5356,
    " printed": 5357,
    " soldiers": 5358,
    " someday": 5359,
    " potatoes": 5360,
    " pupil": 5361,
    "umes": 5362,
    " Millie": 5363,
    " drinks": 5364,
    " shed": 5365,
    " experience": 5366,
    " Tuna": 5367,
    " presents": 5368,
    " firef": 5369,
    " Ruby": 5370,
    " surround": 5371,
    " none": 5372,
    "osed": 5373,
    " voices": 5374,
    "eep": 5375,
    " drinking": 5376,
    " Uncle": 5377,
    "ishing": 5378,
    " relaxed": 5379,
    " victory": 5380,
    "cus": 5381,
    " paints": 5382,
    " breaking": 5383,
    "eve": 5384,
    " hurried": 5385,
    "ission": 5386,
    " twink": 5387,
    " tongue": 5388,
    " costumes": 5389,
    " flat": 5390,
    " mentioned": 5391,
    " begged": 5392,
    " teasing": 5393,
    " whistling": 5394,
    " fetch": 5395,
    " permission": 5396,
    " sip": 5397,
    " disagreed": 5398,
    " pearl": 5399,
    "akes": 5400,
    " stro": 5401,
    "vest": 5402,
    " These": 5403,
    " esc": 5404,
    " appro": 5405,
    " skipping": 5406,
    " fishing": 5407,
    " May": 5408,
    "Leo": 5409,
    " highest": 5410,
    " pra": 5411,
    " watches": 5412,
    " sorted": 5413,
    " ringing": 5414,
    "ship": 5415,
    " tonight": 5416,
    " Bo": 5417,
    " opin": 5418,
    " lets": 5419,
    "icing": 5420,
    " Qu": 5421,
    " perfectly": 5422,
    " shadows": 5423,
    " immediately": 5424,
    " herbs": 5425,
    " warmth": 5426,
    " spit": 5427,
    " remained": 5428,
    "ther": 5429,
    " Its": 5430,
    "walk": 5431,
    "Bobby": 5432,
    "irring": 5433,
    "Jen": 5434,
    " sneak": 5435,
    " six": 5436,
    " lips": 5437,
    " kneeled": 5438,
    "Blue": 5439,
    " contest": 5440,
    " Che": 5441,
    "utter": 5442,
    " cartoons": 5443,
    " sidewalk": 5444,
    " colours": 5445,
    " stamps": 5446,
    " ago": 5447,
    "Ha": 5448,
    " Toto": 5449,
    " Boo": 5450,
    " Follow": 5451,
    " east": 5452,
    " headed": 5453,
    "oved": 5454,
    "\",": 5455,
    " strang": 5456,
    " ladyb": 5457,
    " fed": 5458,
    " supposed": 5459,
    " roots": 5460,
    " lick": 5461,
    " crunch": 5462,
    " mixing": 5463,
    " works": 5464,
    " decorations": 5465,
    " melting": 5466,
    " known": 5467,
    " emergen": 5468,
    "Mandy": 5469,
    " rested": 5470,
    " Ab": 5471,
    " lines": 5472,
    " Suzy": 5473,
    " lily": 5474,
    " Jul": 5475,
    " instr": 5476,
    " laid": 5477,
    " Gr": 5478,
    " succeeded": 5479,
    " cones": 5480,
    " wiggle": 5481,
    "ety": 5482,
    "sing": 5483,
    " shock": 5484,
    " setting": 5485,
    " Slow": 5486,
    " studied": 5487,
    " strangers": 5488,
    " Rocky": 5489,
    "Really": 5490,
    " twigs": 5491,
    " brid": 5492,
    " theirs": 5493,
    " Dr": 5494,
    " girls": 5495,
    "boo": 5496,
    "!\",": 5497,
    " screams": 5498,
    " lands": 5499,
    " ordered": 5500,
    " stirring": 5501,
    " moments": 5502,
    " fields": 5503,
    " alright": 5504,
    " stealing": 5505,
    "ded": 5506,
    "Andy": 5507,
    " rul": 5508,
    " bravely": 5509,
    "avid": 5510,
    " Both": 5511,
    " mister": 5512,
    "!'": 5513,
    " invest": 5514,
    " scratched": 5515,
    " playtime": 5516,
    " ripped": 5517,
    " investig": 5518,
    " tucked": 5519,
    " resting": 5520,
    " burning": 5521,
    "ishes": 5522,
    " Clara": 5523,
    " Chicky": 5524,
    " bridges": 5525,
    " officer": 5526,
    "please": 5527,
    "Sammy": 5528,
    "Bird": 5529,
    "abies": 5530,
    " settled": 5531,
    " matched": 5532,
    " achie": 5533,
    " tex": 5534,
    " texture": 5535,
    "Happy": 5536,
    " waits": 5537,
    " turning": 5538,
    " Sky": 5539,
    "Peter": 5540,
    "ored": 5541,
    " trembling": 5542,
    "isten": 5543,
    " nails": 5544,
    "atie": 5545,
    " muffins": 5546,
    " Someone": 5547,
    "ids": 5548,
    " escaped": 5549,
    " James": 5550,
    " piles": 5551,
    " investigate": 5552,
    "osity": 5553,
    " broom": 5554,
    " ladybug": 5555,
    " sore": 5556,
    " Pepper": 5557,
    " appreciate": 5558,
    " admir": 5559,
    " threat": 5560,
    " babies": 5561,
    " silence": 5562,
    " sisters": 5563,
    " emergency": 5564,
    " area": 5565,
    "ides": 5566,
    " dads": 5567,
    " answers": 5568,
    " pupp": 5569,
    " keys": 5570,
    " chewing": 5571,
    " slapped": 5572,
    " wiz": 5573,
    " importance": 5574,
    "Boo": 5575,
    " served": 5576,
    " Hop": 5577,
    " safety": 5578,
    "izing": 5579,
    "Bu": 5580,
    "Would": 5581,
    " sparkle": 5582,
    " touching": 5583,
    " Later": 5584,
    " soared": 5585,
    "igail": 5586,
    " sings": 5587,
    " hen": 5588,
    "allen": 5589,
    "Ella": 5590,
    "bers": 5591,
    "antly": 5592,
    "Momo": 5593,
    " Dino": 5594,
    " keeps": 5595,
    " amazement": 5596,
    " challen": 5597,
    " twin": 5598,
    " hesit": 5599,
    " revealed": 5600,
    "anna": 5601,
    "achel": 5602,
    " item": 5603,
    " dire": 5604,
    " soaked": 5605,
    "zing": 5606,
    " writ": 5607,
    " foods": 5608,
    " rides": 5609,
    " dinosaurs": 5610,
    " recorded": 5611,
    " tickle": 5612,
    " inch": 5613,
    " Zigzag": 5614,
    " Me": 5615,
    " wizard": 5616,
    " vet": 5617,
    " trips": 5618,
    " glowed": 5619,
    " An": 5620,
    " Frog": 5621,
    "Mmm": 5622,
    " hi": 5623,
    " beamed": 5624,
    " quack": 5625,
    " curled": 5626,
    " hated": 5627,
    " wink": 5628,
    " shopping": 5629,
    " eats": 5630,
    "Eventually": 5631,
    " Bug": 5632,
    " praised": 5633,
    " wooden": 5634,
    " bringing": 5635,
    " mittens": 5636,
    " studying": 5637,
    " guy": 5638,
    " brushes": 5639,
    " spaceship": 5640,
    " gust": 5641,
    " crawling": 5642,
    " Something": 5643,
    "Cat": 5644,
    " ruler": 5645,
    " flav": 5646,
    " downstairs": 5647,
    " shooting": 5648,
    " tastes": 5649,
    " napping": 5650,
    " sprinkles": 5651,
    " marks": 5652,
    " cuddled": 5653,
    " dot": 5654,
    "hello": 5655,
    "plash": 5656,
    " fut": 5657,
    "ales": 5658,
    "aved": 5659,
    " future": 5660,
    " monsters": 5661,
    " collecting": 5662,
    " measuring": 5663,
    " Happy": 5664,
    "'.": 5665,
    " families": 5666,
    " Out": 5667,
    " First": 5668,
    " Mo": 5669,
    " thrill": 5670,
    " oat": 5671,
    "irts": 5672,
    " result": 5673,
    "Jake": 5674,
    " approached": 5675,
    " Rabbit": 5676,
    " crunchy": 5677,
    "act": 5678,
    "Un": 5679,
    " remem": 5680,
    " bleeding": 5681,
    " remembers": 5682,
    " nicer": 5683,
    " beat": 5684,
    " sneaky": 5685,
    " disturbed": 5686,
    " leader": 5687,
    " scaring": 5688,
    "Or": 5689,
    "hind": 5690,
    " peel": 5691,
    " Hope": 5692,
    " firemen": 5693,
    " neighborhood": 5694,
    " Star": 5695,
    " grey": 5696,
    " Not": 5697,
    " motion": 5698,
    " noon": 5699,
    " possible": 5700,
    "Emily": 5701,
    "Somet": 5702,
    " apologized": 5703,
    " weighed": 5704,
    "ues": 5705,
    " Did": 5706,
    " tickets": 5707,
    "Cl": 5708,
    " naps": 5709,
    " loose": 5710,
    " pride": 5711,
    " youth": 5712,
    " swims": 5713,
    "ped": 5714,
    " strings": 5715,
    " recognized": 5716,
    " siren": 5717,
    " poking": 5718,
    "fied": 5719,
    " Ho": 5720,
    "cious": 5721,
    "ha": 5722,
    "elvet": 5723,
    " tricked": 5724,
    " wonders": 5725,
    " gained": 5726,
    " wanting": 5727,
    " crashed": 5728,
    " obe": 5729,
    " seesaw": 5730,
    " worker": 5731,
    "unnies": 5732,
    "ls": 5733,
    "oming": 5734,
    " draws": 5735,
    " scooped": 5736,
    ".'": 5737,
    " zooming": 5738,
    " opinion": 5739,
    " yelling": 5740,
    " prepared": 5741,
    " grinned": 5742,
    " Slowly": 5743,
    " awe": 5744,
    " poems": 5745,
    " doggy": 5746,
    " acting": 5747,
    " Beep": 5748,
    " happiest": 5749,
    " chef": 5750,
    " sneaked": 5751,
    " respons": 5752,
    " eff": 5753,
    " Always": 5754,
    " Lizzy": 5755,
    " owned": 5756,
    " bunnies": 5757,
    " anytime": 5758,
    " struck": 5759,
    " pedals": 5760,
    "oys": 5761,
    " knelt": 5762,
    "ena": 5763,
    "Ollie": 5764,
    " secrets": 5765,
    " pause": 5766,
    " decorated": 5767,
    " horns": 5768,
    " agreement": 5769,
    " Squ": 5770,
    "ided": 5771,
    " frost": 5772,
    " tallest": 5773,
    " obey": 5774,
    "Remember": 5775,
    "riends": 5776,
    "ogo": 5777,
    " Stop": 5778,
    "Have": 5779,
    " decides": 5780,
    " Once": 5781,
    " behaved": 5782,
    " tugged": 5783,
    " sides": 5784,
    " woof": 5785,
    " slim": 5786,
    "zen": 5787,
    " goodnight": 5788,
    " keeper": 5789,
    " sparkling": 5790,
    " chirped": 5791,
    " precious": 5792,
    "mother": 5793,
    "lier": 5794,
    "ien": 5795,
    "Tr": 5796,
    " repeated": 5797,
    " claps": 5798,
    "indy": 5799,
    "affes": 5800,
    " snowballs": 5801,
    " contain": 5802,
    "ud": 5803,
    "rs": 5804,
    " Ray": 5805,
    " ourselves": 5806,
    "allow": 5807,
    " giraffes": 5808,
    " balancing": 5809,
    " kindly": 5810,
    " spending": 5811,
    " writes": 5812,
    "ays": 5813,
    "ppers": 5814,
    " Like": 5815,
    "omas": 5816,
    " prop": 5817,
    " hissed": 5818,
    "First": 5819,
    " frozen": 5820,
    " frosting": 5821,
    " effort": 5822,
    " buzzing": 5823,
    " struggled": 5824,
    "oh": 5825,
    " Steve": 5826,
    " admiring": 5827,
    " rele": 5828,
    "iggy": 5829,
    " sweeties": 5830,
    " Velvet": 5831,
    " slimy": 5832,
    " brushed": 5833,
    " bloomed": 5834,
    "Susie": 5835,
    " Am": 5836,
    " polished": 5837,
    " Zoe": 5838,
    "arth": 5839,
    "anted": 5840,
    " comfy": 5841,
    " boo": 5842,
    " staying": 5843,
    " rubbing": 5844,
    "Ducky": 5845,
    " rocking": 5846,
    " pockets": 5847,
    " thrilled": 5848,
    " beside": 5849,
    " comple": 5850,
    " Aunt": 5851,
    " Maggie": 5852,
    "Ah": 5853,
    " eight": 5854,
    "urry": 5855,
    "isdom": 5856,
    " machines": 5857,
    " earlier": 5858,
    " yesterday": 5859,
    " seems": 5860,
    " rust": 5861,
    " Keep": 5862,
    "Sp": 5863,
    " traveled": 5864,
    " folding": 5865,
    " boom": 5866,
    " cracked": 5867,
    "ities": 5868,
    " hugging": 5869,
    " radishes": 5870,
    " Stitch": 5871,
    " opening": 5872,
    " loving": 5873,
    " circus": 5874,
    " surrounded": 5875,
    " curiosity": 5876,
    " Rachel": 5877,
    " spraying": 5878,
    " demanded": 5879,
    " paintings": 5880,
    "amie": 5881,
    " Green": 5882,
    " removed": 5883,
    " gaze": 5884,
    " honk": 5885,
    " pebbles": 5886,
    " zookeeper": 5887,
    " hardly": 5888,
    " catches": 5889,
    "edding": 5890,
    " sting": 5891,
    " stripes": 5892,
    " powers": 5893,
    " loaded": 5894,
    " Pippa": 5895,
    "Sometimes": 5896,
    " splashes": 5897,
    " pots": 5898,
    " petted": 5899,
    " matching": 5900,
    " David": 5901,
    "Thanks": 5902,
    " toss": 5903,
    " stare": 5904,
    " belly": 5905,
    "Yummy": 5906,
    "ibb": 5907,
    " whatever": 5908,
    " apologize": 5909,
    " rocked": 5910,
    " comforted": 5911,
    " Bree": 5912,
    " decision": 5913,
    " ribbons": 5914,
    " Joy": 5915,
    " Birdie": 5916,
    "ern": 5917,
    " struggling": 5918,
    " expected": 5919,
    " deser": 5920,
    " steep": 5921,
    "wh": 5922,
    " protected": 5923,
    " neighbors": 5924,
    " smiley": 5925,
    " chases": 5926,
    "During": 5927,
    " granted": 5928,
    " crumb": 5929,
    " Mat": 5930,
    " purred": 5931,
    " diving": 5932,
    " sadness": 5933,
    "Whiskers": 5934,
    " organizing": 5935,
    "lowers": 5936,
    " eagle": 5937,
    " heroes": 5938,
    " dipped": 5939,
    " sunlight": 5940,
    " lied": 5941,
    " pastels": 5942,
    " Frank": 5943,
    "Ex": 5944,
    " safer": 5945,
    " roads": 5946,
    " scru": 5947,
    " argued": 5948,
    " Milly": 5949,
    " goals": 5950,
    " Water": 5951,
    " discovery": 5952,
    " Abigail": 5953,
    " villag": 5954,
    " peered": 5955,
    "Ro": 5956,
    " Bouncy": 5957,
    "use": 5958,
    "ana": 5959,
    "loe": 5960,
    " tim": 5961,
    " dragons": 5962,
    " buildings": 5963,
    " buckets": 5964,
    " parties": 5965,
    " beard": 5966,
    " wedding": 5967,
    "Rex": 5968,
    " flutter": 5969,
    " planets": 5970,
    " ann": 5971,
    " Robby": 5972,
    " polishing": 5973,
    " fasc": 5974,
    "ira": 5975,
    " released": 5976,
    " Chr": 5977,
    " crabs": 5978,
    " Gogo": 5979,
    " tails": 5980,
    " Watch": 5981,
    " sausages": 5982,
    " Ju": 5983,
    " argu": 5984,
    " contro": 5985,
    " bottles": 5986,
    " wiggled": 5987,
    " teased": 5988,
    "uke": 5989,
    " arguing": 5990,
    " sled": 5991,
    " dragged": 5992,
    " padd": 5993,
    " Car": 5994,
    " roaring": 5995,
    " clearing": 5996,
    " shirts": 5997,
    " movies": 5998,
    " gathering": 5999,
    " airpl": 6000,
    " wid": 6001,
    "joyed": 6002,
    " teaches": 6003,
    " spiders": 6004,
    " limes": 6005,
    " Remember": 6006,
    " Dare": 6007,
    " overjoyed": 6008,
    " actually": 6009,
    " sighs": 6010,
    " continue": 6011,
    " cuddle": 6012,
    " soaring": 6013,
    " smallest": 6014,
    " Jess": 6015,
    " drives": 6016,
    " sparkles": 6017,
    " rip": 6018,
    " situ": 6019,
    " cubes": 6020,
    " refres": 6021,
    " talent": 6022,
    " challenge": 6023,
    " Olly": 6024,
    " grandmother": 6025,
    " Splash": 6026,
    " pouring": 6027,
    "umm": 6028,
    " pretends": 6029,
    " fascin": 6030,
    " cuts": 6031,
    " quarreling": 6032,
    " peppers": 6033,
    " bank": 6034,
    " shivered": 6035,
    " mane": 6036,
    " dusty": 6037,
    "ley": 6038,
    " wondering": 6039,
    " villagers": 6040,
    " stretching": 6041,
    "njoy": 6042,
    "ib": 6043,
    " weeks": 6044,
    " wherever": 6045,
    " darker": 6046,
    "jam": 6047,
    "Tiny": 6048,
    "sses": 6049,
    " X": 6050,
    " rings": 6051,
    " onwards": 6052,
    " Katie": 6053,
    " united": 6054,
    "Achoo": 6055,
    " bead": 6056,
    " Everyday": 6057,
    " Being": 6058,
    " prettiest": 6059,
    "Johnny": 6060,
    " caut": 6061,
    " realize": 6062,
    " company": 6063,
    " penguins": 6064,
    "annah": 6065,
    "Luna": 6066,
    "Fr": 6067,
    " Spring": 6068,
    " bedtime": 6069,
    " completed": 6070,
    " Wisdom": 6071,
    " Leave": 6072,
    "\u201d.": 6073,
    " knights": 6074,
    " flags": 6075,
    " Je": 6076,
    " Because": 6077,
    " playroom": 6078,
    " Prin": 6079,
    " actions": 6080,
    " Zero": 6081,
    " learns": 6082,
    " gotten": 6083,
    " patience": 6084,
    "inda": 6085,
    "dam": 6086,
    " shrug": 6087,
    " kites": 6088,
    " responsible": 6089,
    " fears": 6090,
    " destination": 6091,
    " wires": 6092,
    " reply": 6093,
    " wrist": 6094,
    " dam": 6095,
    "aws": 6096,
    " packing": 6097,
    " mountains": 6098,
    " fault": 6099,
    " applauded": 6100,
    " scrubbed": 6101,
    " ma": 6102,
    " crept": 6103,
    " Ava": 6104,
    "Uh": 6105,
    " Earth": 6106,
    " satis": 6107,
    " third": 6108,
    " phot": 6109,
    " pencils": 6110,
    " wins": 6111,
    " sticking": 6112,
    " baker": 6113,
    " visiting": 6114,
    " wound": 6115,
    " uses": 6116,
    " peas": 6117,
    " reminder": 6118,
    " control": 6119,
    "ashed": 6120,
    "Grandpa": 6121,
    " joking": 6122,
    " awake": 6123,
    " instruct": 6124,
    " staring": 6125,
    " healed": 6126,
    " Put": 6127,
    " hitting": 6128,
    " Fish": 6129,
    " screaming": 6130,
    " begin": 6131,
    "Rob": 6132,
    "uckily": 6133,
    " Friends": 6134,
    " Moo": 6135,
    "icorn": 6136,
    " helmets": 6137,
    "enty": 6138,
    " unicorn": 6139,
    "ler": 6140,
    "seek": 6141,
    " towels": 6142,
    "Silly": 6143,
    " Lou": 6144,
    " chips": 6145,
    "ica": 6146,
    " creation": 6147,
    " wasted": 6148,
    "bie": 6149,
    "Mar": 6150,
    " Behind": 6151,
    "laire": 6152,
    " masks": 6153,
    " items": 6154,
    " forgi": 6155,
    " firefight": 6156,
    " outdo": 6157,
    " lollipops": 6158,
    "Watch": 6159,
    " heav": 6160,
    " guns": 6161,
    " died": 6162,
    " Hippy": 6163,
    " seas": 6164,
    " glitter": 6165,
    "uddles": 6166,
    " arrive": 6167,
    " weren": 6168,
    " stole": 6169,
    " scales": 6170,
    " perched": 6171,
    " accom": 6172,
    " logs": 6173,
    " achieve": 6174,
    "die": 6175,
    " practicing": 6176,
    "ining": 6177,
    " whose": 6178,
    "Stay": 6179,
    " pumpkins": 6180,
    " instructions": 6181,
    " swoop": 6182,
    " batteries": 6183,
    " candies": 6184,
    " agrees": 6185,
    " project": 6186,
    " snakes": 6187,
    " chirping": 6188,
    "Benny": 6189,
    " shelves": 6190,
    " protecting": 6191,
    " parked": 6192,
    " exact": 6193,
    " Cra": 6194,
    " patiently": 6195,
    " activ": 6196,
    " videos": 6197,
    " shoulders": 6198,
    " blows": 6199,
    "hee": 6200,
    "Fo": 6201,
    " promises": 6202,
    "go": 6203,
    " dent": 6204,
    "usan": 6205,
    "uest": 6206,
    "ners": 6207,
    "jamas": 6208,
    " examined": 6209,
    " airplane": 6210,
    "Doggy": 6211,
    " roses": 6212,
    " accompl": 6213,
    " tasks": 6214,
    "Dave": 6215,
    " Hoot": 6216,
    "Poppy": 6217,
    " Bop": 6218,
    "Bunny": 6219,
    " beads": 6220,
    " bowls": 6221,
    " crumbs": 6222,
    "zes": 6223,
    " listens": 6224,
    " Love": 6225,
    " Catty": 6226,
    " Brownie": 6227,
    "Pete": 6228,
    " Ol": 6229,
    " dolphins": 6230,
    " cough": 6231,
    " bunch": 6232,
    " guest": 6233,
    "cakes": 6234,
    " requested": 6235,
    " remote": 6236,
    " improved": 6237,
    "anta": 6238,
    " reaching": 6239,
    " brand": 6240,
    " Jan": 6241,
    "ayla": 6242,
    " alien": 6243,
    " Bye": 6244,
    "irm": 6245,
    " copy": 6246,
    " Sun": 6247,
    " cheering": 6248,
    " photos": 6249,
    " Julie": 6250,
    " Chew": 6251,
    "Bad": 6252,
    " Blink": 6253,
    "Time": 6254,
    " cans": 6255,
    " Cuddles": 6256,
    " timer": 6257,
    " By": 6258,
    " replaced": 6259,
    "athy": 6260,
    " workers": 6261,
    " stern": 6262,
    " Enjoy": 6263,
    "aster": 6264,
    " neither": 6265,
    "Mike": 6266,
    " passing": 6267,
    " misses": 6268,
    " curtains": 6269,
    " confl": 6270,
    "Chirpy": 6271,
    " rainbows": 6272,
    " rubs": 6273,
    "George": 6274,
    "uctantly": 6275,
    " rolls": 6276,
    " patted": 6277,
    "ilo": 6278,
    " pajamas": 6279,
    " outdoors": 6280,
    "esome": 6281,
    "dies": 6282,
    " complaining": 6283,
    " Squirrel": 6284,
    "Lola": 6285,
    "Run": 6286,
    " puppet": 6287,
    " Princess": 6288,
    " closes": 6289,
    " beneath": 6290,
    " lap": 6291,
    " drums": 6292,
    " tune": 6293,
    " Beth": 6294,
    " Mouse": 6295,
    " filling": 6296,
    "Miss": 6297,
    "angled": 6298,
    " refuse": 6299,
    " Sorry": 6300,
    " sweat": 6301,
    " faced": 6302,
    "...": 6303,
    " seven": 6304,
    " balanced": 6305,
    " rescued": 6306,
    "neath": 6307,
    "bl": 6308,
    " quacked": 6309,
    " Abby": 6310,
    "Paul": 6311,
    "istle": 6312,
    " awesome": 6313,
    " 1": 6314,
    " mission": 6315,
    " However": 6316,
    " guys": 6317,
    " conflict": 6318,
    " cautious": 6319,
    " vent": 6320,
    " observed": 6321,
    " cause": 6322,
    " introduc": 6323,
    " Thomas": 6324,
    " pastries": 6325,
    "nie": 6326,
    "  ": 6327,
    " Our": 6328,
    " exactly": 6329,
    " doctors": 6330,
    " rule": 6331,
    " becoming": 6332,
    " policeman": 6333,
    " mes": 6334,
    "uly": 6335,
    " rockets": 6336,
    "you": 6337,
    " Yes": 6338,
    " Dot": 6339,
    " fairies": 6340,
    "lay": 6341,
    " pout": 6342,
    "An": 6343,
    " insist": 6344,
    " blooming": 6345,
    " tractor": 6346,
    " farther": 6347,
    " Sad": 6348,
    "avi": 6349,
    "Oops": 6350,
    "Great": 6351,
    " remembering": 6352,
    " included": 6353,
    " curly": 6354,
    "Zoom": 6355,
    "Fine": 6356,
    " teamwork": 6357,
    "zie": 6358,
    " fascinated": 6359,
    " wobbled": 6360,
    " slam": 6361,
    " truly": 6362,
    " helpers": 6363,
    " sights": 6364,
    " paddle": 6365,
    " stumble": 6366,
    " firm": 6367,
    "Henry": 6368,
    " Jilly": 6369,
    "acob": 6370,
    " caused": 6371,
    " prayer": 6372,
    " spong": 6373,
    " recording": 6374,
    "kelly": 6375,
    "ais": 6376,
    " traded": 6377,
    " starfish": 6378,
    " supplies": 6379,
    " thro": 6380,
    " pointy": 6381,
    " situation": 6382,
    " inviting": 6383,
    "eah": 6384,
    "gers": 6385,
    " neighbourhood": 6386,
    " everyday": 6387,
    " ornaments": 6388,
    " Ally": 6389,
    "inkle": 6390,
    " valued": 6391,
    " adding": 6392,
    "Some": 6393,
    " reluctantly": 6394,
    " dots": 6395,
    " stays": 6396,
    " tables": 6397,
    " prettier": 6398,
    " bare": 6399,
    " desert": 6400,
    " snowmen": 6401,
    " steady": 6402,
    " minerals": 6403,
    "araway": 6404,
    " thorn": 6405,
    "ody": 6406,
    " ast": 6407,
    " glasses": 6408,
    " faraway": 6409,
    " Get": 6410,
    " Foxy": 6411,
    " swooped": 6412,
    " Welcome": 6413,
    " Two": 6414,
    " Sure": 6415,
    " unf": 6416,
    " forks": 6417,
    " usually": 6418,
    " usual": 6419,
    "Polly": 6420,
    " dar": 6421,
    " Jamie": 6422,
    " winked": 6423,
    " sneezing": 6424,
    " solut": 6425,
    " loading": 6426,
    " sponge": 6427,
    " Quick": 6428,
    " insects": 6429,
    " pans": 6430,
    "Dog": 6431,
    " sobbed": 6432,
    " Santa": 6433,
    "James": 6434,
    " growling": 6435,
    "sm": 6436,
    "arter": 6437,
    " throat": 6438,
    " Chloe": 6439,
    " noses": 6440,
    " Josh": 6441,
    " Dizzy": 6442,
    " scarves": 6443,
    " confident": 6444,
    " yourselves": 6445,
    " Want": 6446,
    "agull": 6447,
    " homework": 6448,
    " superheroes": 6449,
    " Stay": 6450,
    "Joey": 6451,
    " smarter": 6452,
    " windy": 6453,
    " librarian": 6454,
    "Tina": 6455,
    " Kids": 6456,
    " gems": 6457,
    "Days": 6458,
    "ora": 6459,
    " underneath": 6460,
    " kicks": 6461,
    " knowled": 6462,
    " itchy": 6463,
    " knowledge": 6464,
    " jackets": 6465,
    " Skelly": 6466,
    " For": 6467,
    " surface": 6468,
    " untie": 6469,
    " comm": 6470,
    " Duck": 6471,
    " princesses": 6472,
    "...\"": 6473,
    "Those": 6474,
    "ido": 6475,
    "eed": 6476,
    "Hold": 6477,
    "Yeah": 6478,
    "coon": 6479,
    " squares": 6480,
    " Henny": 6481,
    " warnings": 6482,
    " giggling": 6483,
    "iar": 6484,
    " reads": 6485,
    "vin": 6486,
    "Our": 6487,
    " choo": 6488,
    "son": 6489,
    " younger": 6490,
    " clowns": 6491,
    " Mix": 6492,
    "Toby": 6493,
    " ropes": 6494,
    " biting": 6495,
    " crowd": 6496,
    " Unfortunately": 6497,
    "pite": 6498,
    "Danny": 6499,
    "True": 6500,
    " seagull": 6501,
    " paddled": 6502,
    " wears": 6503,
    " delivered": 6504,
    " Mon": 6505,
    " twirl": 6506,
    " onions": 6507,
    " buzzed": 6508,
    " complained": 6509,
    " bumpy": 6510,
    " stem": 6511,
    "Ew": 6512,
    " piggy": 6513,
    "Mrs": 6514,
    " Anne": 6515,
    " direction": 6516,
    "ouch": 6517,
    " dived": 6518,
    "Roar": 6519,
    " tangled": 6520,
    " startled": 6521,
    "ults": 6522,
    " leaning": 6523,
    "bbie": 6524,
    " Ant": 6525,
    " Jones": 6526,
    " badge": 6527,
    " Po": 6528,
    "Grace": 6529,
    " unp": 6530,
    " deal": 6531,
    "though": 6532,
    "Annie": 6533,
    " vowed": 6534,
    " napkins": 6535,
    "anes": 6536,
    " tickled": 6537,
    " risk": 6538,
    " covers": 6539,
    " pec": 6540,
    "Shh": 6541,
    " yells": 6542,
    " satisfied": 6543,
    "int": 6544,
    " knocks": 6545,
    " refreshed": 6546,
    "tuce": 6547,
    " Sc": 6548,
    "cuse": 6549,
    " cous": 6550,
    " arrows": 6551,
    "Maggie": 6552,
    " Whistle": 6553,
    "Pe": 6554,
    " wipes": 6555,
    " speaking": 6556,
    " lettuce": 6557,
    " guessing": 6558,
    "Unfortunately": 6559,
    " Quack": 6560,
    " ripe": 6561,
    " Susan": 6562,
    " hides": 6563,
    " choices": 6564,
    " Dodo": 6565,
    " Rover": 6566,
    "Buzz": 6567,
    " signed": 6568,
    " slower": 6569,
    " seeker": 6570,
    " introduced": 6571,
    " singer": 6572,
    " creating": 6573,
    " Matt": 6574,
    " froze": 6575,
    " cent": 6576,
    "uggles": 6577,
    " joked": 6578,
    " squeal": 6579,
    " toaster": 6580,
    " explorers": 6581,
    "fit": 6582,
    " avo": 6583,
    "anging": 6584,
    "Sophie": 6585,
    " praying": 6586,
    " written": 6587,
    " discovering": 6588,
    " provided": 6589,
    " Dara": 6590,
    " refle": 6591,
    " Lion": 6592,
    "Excuse": 6593,
    " mushrooms": 6594,
    " Jeff": 6595,
    " Paws": 6596,
    " paying": 6597,
    " knees": 6598,
    "ences": 6599,
    " hider": 6600,
    " wandering": 6601,
    " Ash": 6602,
    " images": 6603,
    "Charlie": 6604,
    " stung": 6605,
    " Wink": 6606,
    " magnets": 6607,
    " barely": 6608,
    " behaving": 6609,
    " tipto": 6610,
    "?\",": 6611,
    " marked": 6612,
    "brush": 6613,
    "rrr": 6614,
    " restored": 6615,
    " Dee": 6616,
    " leading": 6617,
    "lled": 6618,
    " chuck": 6619,
    "ados": 6620,
    " nine": 6621,
    " greet": 6622,
    "Teddy": 6623,
    " gears": 6624,
    " bravery": 6625,
    " Snuggles": 6626,
    "ky": 6627,
    " competition": 6628,
    "eal": 6629,
    " outfit": 6630,
    "oline": 6631,
    " wishing": 6632,
    " properly": 6633,
    " ventured": 6634,
    "tle": 6635,
    "aa": 6636,
    " muscle": 6637,
    " dances": 6638,
    " chat": 6639,
    " salty": 6640,
    " pens": 6641,
    "amb": 6642,
    " Betsy": 6643,
    " ranger": 6644,
    " Ziggy": 6645,
    " deserve": 6646,
    " however": 6647,
    "sequ": 6648,
    " matters": 6649,
    " darkness": 6650,
    " burst": 6651,
    " Fu": 6652,
    " rainy": 6653,
    " cobwebs": 6654,
    " ruining": 6655,
    " chefs": 6656,
    " consequ": 6657,
    " blocking": 6658,
    " bak": 6659,
    "usted": 6660,
    "itely": 6661,
    "sty": 6662,
    " scur": 6663,
    " vines": 6664,
    " fab": 6665,
    "abel": 6666,
    " fabric": 6667,
    " entire": 6668,
    " basement": 6669,
    " performed": 6670,
    " least": 6671,
    " Buggy": 6672,
    "Sn": 6673,
    " scratches": 6674,
    " heavier": 6675,
    " Claire": 6676,
    " mints": 6677,
    " twirling": 6678,
    " avocados": 6679,
    "However": 6680,
    " Linda": 6681,
    "rink": 6682,
    "fl": 6683,
    " scurried": 6684,
    " losing": 6685,
    " sunflowers": 6686,
    " Jenna": 6687,
    " rainco": 6688,
    " swords": 6689,
    "Tweet": 6690,
    " click": 6691,
    "agic": 6692,
    " Laser": 6693,
    " silent": 6694,
    " jobs": 6695,
    " necklaces": 6696,
    " flames": 6697,
    " Luke": 6698,
    " relief": 6699,
    " Grumpy": 6700,
    " snat": 6701,
    " sewed": 6702,
    " rotting": 6703,
    "len": 6704,
    "Listen": 6705,
    "Follow": 6706,
    " tricky": 6707,
    "Jerry": 6708,
    " lighter": 6709,
    "ophia": 6710,
    " bows": 6711,
    " Skip": 6712,
    " exha": 6713,
    " solution": 6714,
    " consequences": 6715,
    "Alex": 6716,
    " Lena": 6717,
    " tires": 6718,
    " stain": 6719,
    "Beep": 6720,
    " unpacked": 6721,
    "Ab": 6722,
    " partic": 6723,
    "rance": 6724,
    " races": 6725,
    " pins": 6726,
    " bumps": 6727,
    " wraps": 6728,
    "aisies": 6729,
    " wow": 6730,
    " decorating": 6731,
    " backed": 6732,
    "cher": 6733,
    " dentist": 6734,
    " purr": 6735,
    " needles": 6736,
    " cautiously": 6737,
    " lifting": 6738,
    "izzie": 6739,
    " Pr": 6740,
    " accomplish": 6741,
    " triangles": 6742,
    " daisies": 6743,
    "ept": 6744,
    " hesitated": 6745,
    " annoy": 6746,
    " Those": 6747,
    " growls": 6748,
    " crackers": 6749,
    "oke": 6750,
    " stomped": 6751,
    " grabbing": 6752,
    " cott": 6753,
    " figured": 6754,
    " bodies": 6755,
    " mater": 6756,
    " buying": 6757,
    " Tree": 6758,
    " material": 6759,
    " Rolly": 6760,
    " Fido": 6761,
    " Adam": 6762,
    " swans": 6763,
    " ties": 6764,
    " gri": 6765,
    "vers": 6766,
    " grows": 6767,
    " \n ": 6768,
    " sweets": 6769,
    " Goodbye": 6770,
    " owners": 6771,
    " flavor": 6772,
    " cheeks": 6773,
    " Cathy": 6774,
    "Big": 6775,
    " suffering": 6776,
    " Jessie": 6777,
    " El": 6778,
    "vroom": 6779,
    " fact": 6780,
    " groups": 6781,
    "bly": 6782,
    " forehead": 6783,
    " lungs": 6784,
    "Harry": 6785,
    " repa": 6786,
    " interested": 6787,
    " bakery": 6788,
    " Milo": 6789,
    " freed": 6790,
    "Lilly": 6791,
    "itches": 6792,
    " Nothing": 6793,
    " chuckled": 6794,
    "For": 6795,
    " swept": 6796,
    " conn": 6797,
    "?'": 6798,
    " thud": 6799,
    " exhausted": 6800,
    "Tw": 6801,
    " twinkling": 6802,
    " tapped": 6803,
    "Ru": 6804,
    " nect": 6805,
    "rosty": 6806,
    " nectar": 6807,
    "elle": 6808,
    " feast": 6809,
    " darling": 6810,
    "indr": 6811,
    " Mad": 6812,
    " worries": 6813,
    " uns": 6814,
    " tunnels": 6815,
    " fuzzy": 6816,
    " repaired": 6817,
    " reason": 6818,
    " Trust": 6819,
    " Copper": 6820,
    " Ball": 6821,
    " activities": 6822,
    "lets": 6823,
    " pecked": 6824,
    " Hannah": 6825,
    " entrance": 6826,
    " Try": 6827,
    " raindr": 6828,
    " meals": 6829,
    " Listen": 6830,
    " particular": 6831,
    " completely": 6832,
    " mailed": 6833,
    "ctions": 6834,
    " nests": 6835,
    " waiter": 6836,
    " cuddly": 6837,
    " sense": 6838,
    " Nana": 6839,
    " colored": 6840,
    "arky": 6841,
    " leap": 6842,
    "step": 6843,
    "band": 6844,
    " plenty": 6845,
    " peeking": 6846,
    " slammed": 6847,
    " Cara": 6848,
    "no": 6849,
    " players": 6850,
    " month": 6851,
    " budge": 6852,
    " Birthday": 6853,
    " Q": 6854,
    " scra": 6855,
    " forgets": 6856,
    " den": 6857,
    " handful": 6858,
    " Oliver": 6859,
    " mer": 6860,
    "ossible": 6861,
    " genie": 6862,
    " Christ": 6863,
    " stool": 6864,
    "iggie": 6865,
    " talks": 6866,
    " Pup": 6867,
    " Suzie": 6868,
    " passports": 6869,
    " feeding": 6870,
    " films": 6871,
    " baths": 6872,
    " impossible": 6873,
    " determination": 6874,
    "May": 6875,
    " printing": 6876,
    "boat": 6877,
    " designed": 6878,
    " buses": 6879,
    " opp": 6880,
    "ueen": 6881,
    "lephant": 6882,
    " suitcase": 6883,
    " bars": 6884,
    " counts": 6885,
    " stolen": 6886,
    " spreading": 6887,
    " spikes": 6888,
    " Snap": 6889,
    " wiping": 6890,
    " steer": 6891,
    " lamb": 6892,
    " Rain": 6893,
    " honked": 6894,
    "etty": 6895,
    "nies": 6896,
    "Whee": 6897,
    " cowb": 6898,
    " separated": 6899,
    "blings": 6900,
    " siblings": 6901,
    " hops": 6902,
    " chop": 6903,
    " sewing": 6904,
    " fires": 6905,
    " Twinkle": 6906,
    " fever": 6907,
    " twinkle": 6908,
    " ty": 6909,
    " camping": 6910,
    " Mira": 6911,
    " lower": 6912,
    " changing": 6913,
    "yes": 6914,
    "retch": 6915,
    " behavi": 6916,
    " Bloom": 6917,
    "mas": 6918,
    " liqu": 6919,
    " celebration": 6920,
    "but": 6921,
    " squealed": 6922,
    " dollhouse": 6923,
    "Sunny": 6924,
    " backward": 6925,
    " age": 6926,
    " snatched": 6927,
    " cash": 6928,
    "ho": 6929,
    " twice": 6930,
    "lee": 6931,
    " sway": 6932,
    "itched": 6933,
    " celebrating": 6934,
    " Peanut": 6935,
    " shrinking": 6936,
    " ache": 6937,
    "weed": 6938,
    " kings": 6939,
    "rious": 6940,
    " shops": 6941,
    " kittens": 6942,
    "cope": 6943,
    "Rose": 6944,
    " Jessica": 6945,
    " Jacob": 6946,
    " Gina": 6947,
    "aura": 6948,
    " hus": 6949,
    " touches": 6950,
    "airy": 6951,
    " pancakes": 6952,
    " avoid": 6953,
    " spat": 6954,
    " Frosty": 6955,
    "rig": 6956,
    "hog": 6957,
    " Nina": 6958,
    " paths": 6959,
    "ives": 6960,
    "cky": 6961,
    " Hold": 6962,
    " rotten": 6963,
    " calmed": 6964,
    "Sandy": 6965,
    " seaweed": 6966,
    " dropping": 6967,
    " Jon": 6968,
    " Mel": 6969,
    "iles": 6970,
    "Pipp": 6971,
    " twisting": 6972,
    " stroked": 6973,
    " untied": 6974,
    "llen": 6975,
    " playhouse": 6976,
    "ne": 6977,
    "Millie": 6978,
    " students": 6979,
    " puppies": 6980,
    "cl": 6981,
    " Sof": 6982,
    "hi": 6983,
    " screws": 6984,
    " astron": 6985,
    " Re": 6986,
    " somebody": 6987,
    "igning": 6988,
    " liquid": 6989,
    "ammy": 6990,
    " wakes": 6991,
    " squish": 6992,
    " Woof": 6993,
    " bracelets": 6994,
    " astronaut": 6995,
    "immer": 6996,
    "aren": 6997,
    " thrown": 6998,
    " loops": 6999,
    " Other": 7000,
    "Luckily": 7001,
    " wrapping": 7002,
    " plain": 7003,
    " tramp": 7004,
    " planning": 7005,
    " skunk": 7006,
    " aimed": 7007,
    " pennies": 7008,
    " shoo": 7009,
    " lifts": 7010,
    " dancers": 7011,
    " sparks": 7012,
    " firefly": 7013,
    "pen": 7014,
    "Dan": 7015,
    " poster": 7016,
    "yan": 7017,
    "endy": 7018,
    " cust": 7019,
    " Christmas": 7020,
    " rewarded": 7021,
    " objects": 7022,
    " directions": 7023,
    "using": 7024,
    "ingo": 7025,
    " reflection": 7026,
    " husband": 7027,
    "\u2014": 7028,
    "Take": 7029,
    "river": 7030,
    " clues": 7031,
    "uppy": 7032,
    " leads": 7033,
    " increased": 7034,
    " blocked": 7035,
    " rising": 7036,
    " dod": 7037,
    " cousin": 7038,
    " Yesterday": 7039,
    " Without": 7040,
    " forgetting": 7041,
    "rigued": 7042,
    " custom": 7043,
    "Kate": 7044,
    "ude": 7045,
    " trampoline": 7046,
    " beginning": 7047,
    " storekeeper": 7048,
    " pouted": 7049,
    " zebras": 7050,
    " hedgehog": 7051,
    " aff": 7052,
    " \u2018": 7053,
    " borrowed": 7054,
    " Rollie": 7055,
    " snowfl": 7056,
    " countryside": 7057,
    "Jump": 7058,
    " mesmer": 7059,
    " Jay": 7060,
    " vehicles": 7061,
    " instrum": 7062,
    " Mic": 7063,
    " Kayla": 7064,
    " Up": 7065,
    " frowning": 7066,
    "ivity": 7067,
    "Pat": 7068,
    "Under": 7069,
    " marker": 7070,
    "yond": 7071,
    " presses": 7072,
    " beyond": 7073,
    " Queen": 7074,
    " damage": 7075,
    " Only": 7076,
    "iece": 7077,
    "ivery": 7078,
    " fart": 7079,
    " Tara": 7080,
    " Biggie": 7081,
    "jo": 7082,
    " health": 7083,
    " whispers": 7084,
    " swimsuit": 7085,
    " slips": 7086,
    " nibb": 7087,
    " Julia": 7088,
    "armer": 7089,
    " warmer": 7090,
    " flapping": 7091,
    " tiptoed": 7092,
    " regretted": 7093,
    "itted": 7094,
    "Zip": 7095,
    " laying": 7096,
    " Robo": 7097,
    "ades": 7098,
    " yelp": 7099,
    " Fire": 7100,
    " rains": 7101,
    " glued": 7102,
    " everybody": 7103,
    " creations": 7104,
    " hearing": 7105,
    " swir": 7106,
    " colder": 7107,
    "iversity": 7108,
    "ael": 7109,
    " shaped": 7110,
    " Elephant": 7111,
    " streets": 7112,
    " fins": 7113,
    " rusty": 7114,
    " cushions": 7115,
    "Out": 7116,
    " san": 7117,
    " farthest": 7118,
    " creativity": 7119,
    " Mikey": 7120,
    "ans": 7121,
    " sale": 7122,
    "Always": 7123,
    "Co": 7124,
    " strongest": 7125,
    "ibbit": 7126,
    " fits": 7127,
    " Sparky": 7128,
    " bells": 7129,
    " dollars": 7130,
    " Larry": 7131,
    " earn": 7132,
    "iam": 7133,
    "angle": 7134,
    " lending": 7135,
    " Moon": 7136,
    " Chirp": 7137,
    "eese": 7138,
    " cashier": 7139,
    "Milly": 7140,
    " including": 7141,
    " sniffs": 7142,
    " sank": 7143,
    " raincoat": 7144,
    " Rich": 7145,
    " trembled": 7146,
    " stopping": 7147,
    " source": 7148,
    "iti": 7149,
    "imon": 7150,
    " Missy": 7151,
    " wobbly": 7152,
    " indeed": 7153,
    "ters": 7154,
    " guests": 7155,
    " single": 7156,
    " recommended": 7157,
    " wee": 7158,
    " spells": 7159,
    " accomplishment": 7160,
    " belts": 7161,
    " surprising": 7162,
    " ends": 7163,
    " hopeful": 7164,
    " seasons": 7165,
    " Take": 7166,
    " Snowman": 7167,
    " Els": 7168,
    "Bear": 7169,
    " plans": 7170,
    "ichael": 7171,
    " encourag": 7172,
    " supported": 7173,
    "stick": 7174,
    "illed": 7175,
    " suffered": 7176,
    " artist": 7177,
    " performance": 7178,
    "eet": 7179,
    "Nina": 7180,
    " slowed": 7181,
    " gross": 7182,
    " flavors": 7183,
    "iding": 7184,
    "ertain": 7185,
    " spins": 7186,
    "cho": 7187,
    "Quack": 7188,
    " labels": 7189,
    " raindrops": 7190,
    " delivery": 7191,
    "uing": 7192,
    "arac": 7193,
    " raccoon": 7194,
    " forgiving": 7195,
    "obody": 7196,
    " Woo": 7197,
    " pours": 7198,
    "the": 7199,
    "ility": 7200,
    " vanilla": 7201,
    " turtles": 7202,
    " stands": 7203,
    "Bill": 7204,
    "uess": 7205,
    " recipe": 7206,
    " beam": 7207,
    " tying": 7208,
    " Sw": 7209,
    " geese": 7210,
    " willing": 7211,
    " robber": 7212,
    " drawn": 7213,
    "Vroom": 7214,
    " wept": 7215,
    " Bones": 7216,
    " charac": 7217,
    " pops": 7218,
    " corners": 7219,
    " Sophia": 7220,
    "elia": 7221,
    " queens": 7222,
    " sailboat": 7223,
    " grip": 7224,
    " die": 7225,
    " drivers": 7226,
    "itude": 7227,
    " moo": 7228,
    " hallway": 7229,
    " imagining": 7230,
    " seconds": 7231,
    " Fuzzy": 7232,
    "Mine": 7233,
    " preparing": 7234,
    " widened": 7235,
    " adult": 7236,
    " Spirit": 7237,
    " grocer": 7238,
    " coop": 7239,
    " talented": 7240,
    " Pam": 7241,
    " Beaky": 7242,
    " Izzy": 7243,
    "ummies": 7244,
    " sailors": 7245,
    "lling": 7246,
    " softer": 7247,
    " aside": 7248,
    " watering": 7249,
    " sending": 7250,
    " knots": 7251,
    " unsure": 7252,
    " tipped": 7253,
    "Lulu": 7254,
    " treehouse": 7255,
    " horiz": 7256,
    " Lizzie": 7257,
    " notes": 7258,
    " echo": 7259,
    "igers": 7260,
    " achieved": 7261,
    " horizon": 7262,
    " squeak": 7263,
    " delivering": 7264,
    " pleasure": 7265,
    " hotter": 7266,
    " Stella": 7267,
    "Clara": 7268,
    " pupils": 7269,
    " burrow": 7270,
    " angels": 7271,
    " curiously": 7272,
    "Ellie": 7273,
    " yum": 7274,
    " blinking": 7275,
    " June": 7276,
    " tweet": 7277,
    " symbols": 7278,
    " det": 7279,
    " Stretch": 7280,
    "wk": 7281,
    " passen": 7282,
    " Rudy": 7283,
    " Cindy": 7284,
    " tummies": 7285,
    " tiss": 7286,
    " pigeons": 7287,
    " figures": 7288,
    "umbling": 7289,
    "oey": 7290,
    " bandages": 7291,
    " Robert": 7292,
    " coup": 7293,
    " Doctor": 7294,
    " robots": 7295,
    "alph": 7296,
    " tossed": 7297,
    " hour": 7298,
    " backwards": 7299,
    " roars": 7300,
    "Baby": 7301,
    " merma": 7302,
    "uzz": 7303,
    " rather": 7304,
    "atur": 7305,
    "Maria": 7306,
    "cited": 7307,
    " Play": 7308,
    " Crab": 7309,
    "Moo": 7310,
    "ighting": 7311,
    "Dolly": 7312,
    " groceries": 7313,
    " zipping": 7314,
    "Put": 7315,
    "Very": 7316,
    " unw": 7317,
    "prin": 7318,
    " among": 7319,
    " blown": 7320,
    " icing": 7321,
    "!\u201d.": 7322,
    " rumble": 7323,
    " afterwards": 7324,
    "ipper": 7325,
    " screwd": 7326,
    "ushing": 7327,
    " sped": 7328,
    " prove": 7329,
    " glee": 7330,
    " Titi": 7331,
    " Tia": 7332,
    " dip": 7333,
    " overcome": 7334,
    "Ruby": 7335,
    "Quick": 7336,
    " surfboard": 7337,
    " shovels": 7338,
    " slices": 7339,
    " Toot": 7340,
    " merry": 7341,
    " wobble": 7342,
    " mate": 7343,
    " Turt": 7344,
    " Abbie": 7345,
    " heading": 7346,
    " disturbing": 7347,
    " swall": 7348,
    " reversed": 7349,
    " firefighters": 7350,
    "Jul": 7351,
    " swallowed": 7352,
    " chip": 7353,
    "eds": 7354,
    " scored": 7355,
    " flipped": 7356,
    " Jump": 7357,
    " squeezing": 7358,
    "usty": 7359,
    "Frank": 7360,
    "aty": 7361,
    "Su": 7362,
    " waking": 7363,
    " intrigued": 7364,
    "Sad": 7365,
    "Like": 7366,
    " maker": 7367,
    " Barky": 7368,
    "awn": 7369,
    "Betty": 7370,
    " puff": 7371,
    " hawk": 7372,
    " encouraging": 7373,
    " aud": 7374,
    " Ex": 7375,
    "osen": 7376,
    "onies": 7377,
    " chosen": 7378,
    " Ron": 7379,
    "hew": 7380,
    " Farmer": 7381,
    " Ang": 7382,
    " couple": 7383,
    " designs": 7384,
    " slipping": 7385,
    " screwdriver": 7386,
    " squishy": 7387,
    " Emmy": 7388,
    " gardener": 7389,
    " center": 7390,
    " rivers": 7391,
    " respond": 7392,
    " markers": 7393,
    "iley": 7394,
    " tigers": 7395,
    " jars": 7396,
    "pecting": 7397,
    " frowns": 7398,
    "bird": 7399,
    " fluttered": 7400,
    " Sadly": 7401,
    " Kit": 7402,
    "Ribbit": 7403,
    " firefighter": 7404,
    " Sl": 7405,
    " Ryan": 7406,
    " suits": 7407,
    " secure": 7408,
    " sprinkled": 7409,
    " creamy": 7410,
    "ashes": 7411,
    " sharks": 7412,
    " ignoring": 7413,
    " bru": 7414,
    " giggles": 7415,
    " tissue": 7416,
    " tighter": 7417,
    " firmly": 7418,
    "ounce": 7419,
    " Laura": 7420,
    "fly": 7421,
    " shown": 7422,
    " familiar": 7423,
    " thorns": 7424,
    "Spike": 7425,
    " Wo": 7426,
    " drawers": 7427,
    "child": 7428,
    " Zee": 7429,
    " express": 7430,
    "Car": 7431,
    "ments": 7432,
    " def": 7433,
    " daring": 7434,
    " crossing": 7435,
    " audience": 7436,
    " performing": 7437,
    " coloured": 7438,
    " cloudy": 7439,
    " cor": 7440,
    " ais": 7441,
    " Nick": 7442,
    "ae": 7443,
    "rat": 7444,
    " pedaled": 7445,
    "Get": 7446,
    " mixture": 7447,
    " til": 7448,
    " gracefully": 7449,
    "ggy": 7450,
    " haircuts": 7451,
    " yielded": 7452,
    " ponies": 7453,
    " disob": 7454,
    " crowns": 7455,
    " bits": 7456,
    " todd": 7457,
    " Sleep": 7458,
    " nervously": 7459,
    " hangers": 7460,
    "bbled": 7461,
    " Patch": 7462,
    "Zoomy": 7463,
    " pays": 7464,
    " 2": 7465,
    " peck": 7466,
    " stroke": 7467,
    " ev": 7468,
    "fall": 7469,
    "Bang": 7470,
    "een": 7471,
    " respected": 7472,
    " napped": 7473,
    "aven": 7474,
    " minded": 7475,
    "ddie": 7476,
    "Bessie": 7477,
    "ably": 7478,
    "Boys": 7479,
    " tested": 7480,
    "ading": 7481,
    "parent": 7482,
    " Chris": 7483,
    "Kim": 7484,
    " University": 7485,
    " Near": 7486,
    " beeh": 7487,
    " Turtle": 7488,
    " surfing": 7489,
    " neighbours": 7490,
    "arrow": 7491,
    "vered": 7492,
    " shady": 7493,
    "iona": 7494,
    "arlings": 7495,
    " magician": 7496,
    " enthusiasm": 7497,
    " darlings": 7498,
    " wisely": 7499,
    " stitches": 7500,
    " sails": 7501,
    "kend": 7502,
    "Dear": 7503,
    " weekend": 7504,
    " thoughts": 7505,
    "Freddy": 7506,
    " Tweetie": 7507,
    " reminds": 7508,
    " temper": 7509,
    "oring": 7510,
    "tha": 7511,
    "antha": 7512,
    " surroundings": 7513,
    " spits": 7514,
    " fleas": 7515,
    " teams": 7516,
    " lessons": 7517,
    " fills": 7518,
    " flip": 7519,
    " Along": 7520,
    " paintbrush": 7521,
    " melons": 7522,
    " mermaid": 7523,
    "oni": 7524,
    "Katie": 7525,
    " grandchild": 7526,
    " hoops": 7527,
    " explo": 7528,
    " elbow": 7529,
    " sports": 7530,
    "Guess": 7531,
    " lies": 7532,
    " Fighting": 7533,
    "rac": 7534,
    " panicked": 7535,
    " cleaner": 7536,
    " amount": 7537,
    "cused": 7538,
    " longest": 7539,
    " scooters": 7540,
    " lent": 7541,
    "ita": 7542,
    "immering": 7543,
    " sill": 7544,
    " beloved": 7545,
    "Pippin": 7546,
    " beehive": 7547,
    "Alright": 7548,
    "ongrat": 7549,
    "oga": 7550,
    "lle": 7551,
    "ongratul": 7552,
    " oysters": 7553,
    " grandparent": 7554,
    " forgiven": 7555,
    " magazines": 7556,
    " arr": 7557,
    " Wise": 7558,
    " elf": 7559,
    " repeating": 7560,
    " discussed": 7561,
    " sweetest": 7562,
    " Thanks": 7563,
    "Keep": 7564,
    " wadd": 7565,
    " Maya": 7566,
    " reass": 7567,
    " lace": 7568,
    " Granny": 7569,
    " nightmares": 7570,
    " tubes": 7571,
    " Willy": 7572,
    " understands": 7573,
    " spoonful": 7574,
    " nood": 7575,
    " bathing": 7576,
    " Zoey": 7577,
    "asty": 7578,
    "Am": 7579,
    " sweep": 7580,
    " manners": 7581,
    "crow": 7582,
    "Uncle": 7583,
    " wrink": 7584,
    " sprang": 7585,
    " nur": 7586,
    " bully": 7587,
    " Holly": 7588,
    " guide": 7589,
    " Yet": 7590,
    "onna": 7591,
    "ancy": 7592,
    " crew": 7593,
    "romise": 7594,
    "Jazz": 7595,
    " breathed": 7596,
    "while": 7597,
    "steps": 7598,
    "ilda": 7599,
    "ently": 7600,
    " Bally": 7601,
    " bulbs": 7602,
    " neare": 7603,
    " grassy": 7604,
    " wiggly": 7605,
    " testing": 7606,
    " spies": 7607,
    " coug": 7608,
    " solving": 7609,
    " sheets": 7610,
    " Roo": 7611,
    " footsteps": 7612,
    "ntil": 7613,
    "Afterwards": 7614,
    " speeding": 7615,
    " focused": 7616,
    "ounced": 7617,
    "cept": 7618,
    "?!\"": 7619,
    " mesmerized": 7620,
    " camel": 7621,
    " braver": 7622,
    " hesitant": 7623,
    " Sparkle": 7624,
    " licking": 7625,
    " rushing": 7626,
    " Well": 7627,
    " joining": 7628,
    " Puppy": 7629,
    " polar": 7630,
    " greeted": 7631,
    " Martha": 7632,
    "espite": 7633,
    "--": 7634,
    " Bubb": 7635,
    "Which": 7636,
    "Kiki": 7637,
    " worn": 7638,
    " materials": 7639,
    " changes": 7640,
    " Nobody": 7641,
    "undred": 7642,
    " stored": 7643,
    " bicycles": 7644,
    " mast": 7645,
    " anger": 7646,
    "Leave": 7647,
    " peacefully": 7648,
    " ships": 7649,
    " spice": 7650,
    " terrified": 7651,
    " nuzz": 7652,
    " gonna": 7653,
    " Show": 7654,
    " politely": 7655,
    "Snow": 7656,
    " spills": 7657,
    " scarecrow": 7658,
    " knives": 7659,
    " evil": 7660,
    " Mixy": 7661,
    "ppies": 7662,
    " burying": 7663,
    "ca": 7664,
    " healing": 7665,
    " aren": 7666,
    " donkey": 7667,
    " aeroplanes": 7668,
    "freeze": 7669,
    "Even": 7670,
    " seals": 7671,
    " scattering": 7672,
    " miles": 7673,
    " Chewy": 7674,
    "amboo": 7675,
    " dump": 7676,
    " worrying": 7677,
    "Bee": 7678,
    "zoom": 7679,
    "beep": 7680,
    "David": 7681,
    " Lenny": 7682,
    " puzzled": 7683,
    " stacked": 7684,
    " Kip": 7685,
    "Penny": 7686,
    " Nice": 7687,
    " loses": 7688,
    "dding": 7689,
    " travelled": 7690,
    " baskets": 7691,
    " Win": 7692,
    " Okay": 7693,
    " gazing": 7694,
    " blast": 7695,
    "ipes": 7696,
    " Tess": 7697,
    "Hurry": 7698,
    " temperature": 7699,
    " und": 7700,
    " tasting": 7701,
    " dripping": 7702,
    " clue": 7703,
    " believing": 7704,
    " pinching": 7705,
    "erm": 7706,
    " soaking": 7707,
    " rats": 7708,
    " 10": 7709,
    "isc": 7710,
    " sandy": 7711,
    "rect": 7712,
    " Isn": 7713,
    " Simon": 7714,
    "rey": 7715,
    "anwhile": 7716,
    " Abi": 7717,
    "Binky": 7718,
    " punishment": 7719,
    " banged": 7720,
    " humans": 7721,
    " crashing": 7722,
    " force": 7723,
    " Ana": 7724,
    " hundred": 7725,
    " gest": 7726,
    " Lia": 7727,
    " swimmer": 7728,
    " Chess": 7729,
    " snowflakes": 7730,
    " relaxing": 7731,
    " resisted": 7732,
    " beeped": 7733,
    " Fairy": 7734,
    " quarreled": 7735,
    "form": 7736,
    "elie": 7737,
    " ramp": 7738,
    " Wendy": 7739,
    " joins": 7740,
    "abby": 7741,
    " backpacks": 7742,
    " Ph": 7743,
    "years": 7744,
    " dressing": 7745,
    " delayed": 7746,
    " toddler": 7747,
    " Luckily": 7748,
    " flight": 7749,
    " covering": 7750,
    " Te": 7751,
    "orter": 7752,
    "Two": 7753,
    "Open": 7754,
    "By": 7755,
    " encouragement": 7756,
    " benches": 7757,
    " toward": 7758,
    " scraped": 7759,
    " purpose": 7760,
    " focus": 7761,
    " Judy": 7762,
    "Bow": 7763,
    " correct": 7764,
    "'.\"": 7765,
    " lipstick": 7766,
    " bamboo": 7767,
    "Spe": 7768,
    " twinkled": 7769,
    " potion": 7770,
    " permitted": 7771,
    " months": 7772,
    " Cow": 7773,
    " languages": 7774,
    " orders": 7775,
    " freedom": 7776,
    "Tony": 7777,
    " risks": 7778,
    " poppies": 7779,
    " master": 7780,
    "shm": 7781,
    " noodles": 7782,
    " faded": 7783,
    " wounds": 7784,
    "shmallow": 7785,
    "rier": 7786,
    "Kids": 7787,
    "isions": 7788,
    " Jojo": 7789,
    " creams": 7790,
    " birdhouse": 7791,
    " cells": 7792,
    " annoyed": 7793,
    " Herb": 7794,
    "opes": 7795,
    " sniffing": 7796,
    " cheers": 7797,
    " adults": 7798,
    "Birdy": 7799,
    " unwra": 7800,
    "ecca": 7801,
    "Buzzy": 7802,
    " puck": 7803,
    " opinions": 7804,
    " floats": 7805,
    "andas": 7806,
    "Instead": 7807,
    " flown": 7808,
    " sneezes": 7809,
    " scen": 7810,
    " handsome": 7811,
    " nodding": 7812,
    " Mint": 7813,
    " smelling": 7814,
    " burnt": 7815,
    " 5": 7816,
    " drifted": 7817,
    "ider": 7818,
    "bage": 7819,
    " within": 7820,
    " scient": 7821,
    " height": 7822,
    " damaged": 7823,
    " bothering": 7824,
    " tearing": 7825,
    " slither": 7826,
    " pleaded": 7827,
    " instruments": 7828,
    " ease": 7829,
    " Ali": 7830,
    "da": 7831,
    "Back": 7832,
    " scientist": 7833,
    " Marie": 7834,
    "Mira": 7835,
    "Goodnight": 7836,
    " pound": 7837,
    " seller": 7838,
    " handing": 7839,
    " germ": 7840,
    " Say": 7841,
    " wasting": 7842,
    " files": 7843,
    " results": 7844,
    " dreamt": 7845,
    " Mabel": 7846,
    "bell": 7847,
    " explains": 7848,
    " destroying": 7849,
    " brushing": 7850,
    "ousy": 7851,
    " hiss": 7852,
    " characters": 7853,
    " Razor": 7854,
    " Cr": 7855,
    "Carl": 7856,
    " certain": 7857,
    " Ste": 7858,
    "Pandy": 7859,
    "Behind": 7860,
    " sweaty": 7861,
    " Hug": 7862,
    "unched": 7863,
    " business": 7864,
    " Robbie": 7865,
    " talents": 7866,
    " onward": 7867,
    "Try": 7868,
    " engines": 7869,
    " bravest": 7870,
    "ition": 7871,
    " sternly": 7872,
    " Pen": 7873,
    " Janie": 7874,
    "prints": 7875,
    " postman": 7876,
    " mosquitoes": 7877,
    " minds": 7878,
    "under": 7879,
    "cake": 7880,
    " tuck": 7881,
    " scares": 7882,
    "urious": 7883,
    " stomp": 7884,
    " apologised": 7885,
    "uel": 7886,
    " manag": 7887,
    " snuck": 7888,
    " bitten": 7889,
    "attered": 7890,
    " tilted": 7891,
    " switched": 7892,
    " reminding": 7893,
    " decisions": 7894,
    " singers": 7895,
    " desper": 7896,
    " behavior": 7897,
    " Poor": 7898,
    "ashing": 7899,
    " Judge": 7900,
    "bbers": 7901,
    "inny": 7902,
    " squeaked": 7903,
    " peeled": 7904,
    " Everybody": 7905,
    " yumm": 7906,
    " purrs": 7907,
    " Bra": 7908,
    " treated": 7909,
    " smashed": 7910,
    " rustling": 7911,
    " displayed": 7912,
    " Until": 7913,
    " neatly": 7914,
    " matey": 7915,
    " planting": 7916,
    " Bess": 7917,
    " marshmallow": 7918,
    " insp": 7919,
    " yelped": 7920,
    " sy": 7921,
    " grandparents": 7922,
    " cracks": 7923,
    " bellies": 7924,
    "aver": 7925,
    " shines": 7926,
    " scamp": 7927,
    " Navy": 7928,
    " hoo": 7929,
    " failed": 7930,
    " coloring": 7931,
    " Yoga": 7932,
    "line": 7933,
    " zooms": 7934,
    " Make": 7935,
    "rup": 7936,
    " nasty": 7937,
    " breathing": 7938,
    " combed": 7939,
    " pandas": 7940,
    " despite": 7941,
    " address": 7942,
    "ighing": 7943,
    " waterfall": 7944,
    "uffin": 7945,
    "omp": 7946,
    "cc": 7947,
    " Loop": 7948,
    " Angel": 7949,
    "Tilly": 7950,
    " wider": 7951,
    " robbers": 7952,
    " antic": 7953,
    "Play": 7954,
    "Abigail": 7955,
    " sweaters": 7956,
    " echoed": 7957,
    " doorway": 7958,
    " Todd": 7959,
    "evin": 7960,
    " edges": 7961,
    " inj": 7962,
    " Shadow": 7963,
    "Aunt": 7964,
    " gap": 7965,
    " disobey": 7966,
    " Blinky": 7967,
    "wise": 7968,
    "Liz": 7969,
    " Michael": 7970,
    " tar": 7971,
    " Flick": 7972,
    "oscope": 7973,
    "orking": 7974,
    "Wake": 7975,
    " taped": 7976,
    " magnif": 7977,
    "ulp": 7978,
    "father": 7979,
    " scolds": 7980,
    " flaps": 7981,
    " action": 7982,
    " crawls": 7983,
    " Mindy": 7984,
    "Ros": 7985,
    " swap": 7986,
    " gobbled": 7987,
    " backs": 7988,
    " Gary": 7989,
    " warri": 7990,
    " Fishy": 7991,
    " Eddie": 7992,
    "Slow": 7993,
    " steth": 7994,
    " sever": 7995,
    " shinier": 7996,
    " probably": 7997,
    " newspapers": 7998,
    " several": 7999,
    " occ": 8000,
    "Rock": 8001,
    "Lena": 8002,
    " encount": 8003,
    " Meg": 8004,
    " serving": 8005,
    " quieter": 8006,
    " plucked": 8007,
    " connected": 8008,
    "tock": 8009,
    " Share": 8010,
    " ouch": 8011,
    "igger": 8012,
    "Ted": 8013,
    "Adam": 8014,
    " gesture": 8015,
    "Too": 8016,
    "Fl": 8017,
    " student": 8018,
    " plot": 8019,
    " doorbell": 8020,
    " squaw": 8021,
    " cares": 8022,
    "fire": 8023,
    " rescuing": 8024,
    " grandson": 8025,
    " Se": 8026,
    " spy": 8027,
    " simply": 8028,
    " rows": 8029,
    " goo": 8030,
    "iel": 8031,
    " whistles": 8032,
    "mies": 8033,
    "vant": 8034,
    "Shrink": 8035,
    "Magic": 8036,
    " snaps": 8037,
    " shorter": 8038,
    " astronauts": 8039,
    "ssss": 8040,
    " unpacking": 8041,
    " cottage": 8042,
    " Time": 8043,
    " swo": 8044,
    " accidents": 8045,
    "ibi": 8046,
    " swollen": 8047,
    " mood": 8048,
    " Nut": 8049,
    "Steve": 8050,
    "abelle": 8051,
    " Zippy": 8052,
    " Mousy": 8053,
    "anie": 8054,
    "Zara": 8055,
    " bothered": 8056,
    "Hannah": 8057,
    " stethoscope": 8058,
    "found": 8059,
    " trusting": 8060,
    " causing": 8061,
    "Mat": 8062,
    "Mad": 8063,
    " leapt": 8064,
    " dresser": 8065,
    "aint": 8066,
    " sou": 8067,
    " proper": 8068,
    " pills": 8069,
    "retty": 8070,
    " throughout": 8071,
    "Olive": 8072,
    " runner": 8073,
    " prayers": 8074,
    " Dina": 8075,
    " joyful": 8076,
    "Thomas": 8077,
    "mates": 8078,
    " locks": 8079,
    " Prince": 8080,
    "Jamie": 8081,
    " goats": 8082,
    "what": 8083,
    " target": 8084,
    "rest": 8085,
    " Wait": 8086,
    " Karen": 8087,
    " dears": 8088,
    " Bang": 8089,
    "artled": 8090,
    "Red": 8091,
    " waddled": 8092,
    " munch": 8093,
    " flips": 8094,
    " Cro": 8095,
    " lowered": 8096,
    " stepping": 8097,
    " cons": 8098,
    " Jackie": 8099,
    " teachers": 8100,
    " cowboy": 8101,
    " Toys": 8102,
    " inches": 8103,
    " envelopes": 8104,
    "ears": 8105,
    " char": 8106,
    " Vroom": 8107,
    " explorer": 8108,
    " anticip": 8109,
    " playd": 8110,
    " Ready": 8111,
    " Ruff": 8112,
    " Ralph": 8113,
    "unity": 8114,
    "Nice": 8115,
    "Finn": 8116,
    " Bad": 8117,
    "ening": 8118,
    " knocking": 8119,
    " floors": 8120,
    " efforts": 8121,
    " Pl": 8122,
    " uniforms": 8123,
    "lied": 8124,
    " Tri": 8125,
    " aware": 8126,
    " footprints": 8127,
    "Someone": 8128,
    " nearly": 8129,
    " Fiona": 8130,
    "llas": 8131,
    " disc": 8132,
    " Ria": 8133,
    "ivi": 8134,
    " whimp": 8135,
    " trot": 8136,
    " sens": 8137,
    " glitt": 8138,
    " appreciation": 8139,
    "oosh": 8140,
    " necks": 8141,
    " collap": 8142,
    " checks": 8143,
    " lapt": 8144,
    " except": 8145,
    " plug": 8146,
    " charge": 8147,
    " Jacky": 8148,
    " fluttering": 8149,
    " umbrellas": 8150,
    " stamped": 8151,
    "acy": 8152,
    " sandcastles": 8153,
    " Davey": 8154,
    " statues": 8155,
    " Honey": 8156,
    "omb": 8157,
    "iscuit": 8158,
    "ails": 8159,
    "Hoppy": 8160,
    " shrank": 8161,
    " Amelia": 8162,
    "rily": 8163,
    " prick": 8164,
    " finishing": 8165,
    " adds": 8166,
    "rons": 8167,
    " stroll": 8168,
    " hunters": 8169,
    " dodged": 8170,
    " chocolates": 8171,
    " passengers": 8172,
    " germs": 8173,
    "oger": 8174,
    " wrigg": 8175,
    " aprons": 8176,
    " aisle": 8177,
    " sets": 8178,
    ".'\"": 8179,
    " Gerry": 8180,
    " weeds": 8181,
    " novels": 8182,
    "order": 8183,
    " demanding": 8184,
    " Taking": 8185,
    " scratching": 8186,
    " meows": 8187,
    "issa": 8188,
    "Dr": 8189,
    " nurses": 8190,
    "Lucky": 8191,
    " minding": 8192,
    " discussing": 8193,
    "urrender": 8194,
    " killed": 8195,
    " driveway": 8196,
    " Cari": 8197,
    " becomes": 8198,
    " toolbox": 8199,
    " laptop": 8200,
    " haird": 8201,
    " Eliz": 8202,
    " posit": 8203,
    " attack": 8204,
    " Sadie": 8205,
    " Despite": 8206,
    "Speedy": 8207,
    " Gl": 8208,
    "sol": 8209,
    " scampered": 8210,
    " bounces": 8211,
    " supplied": 8212,
    " sprays": 8213,
    " deed": 8214,
    " tempt": 8215,
    " suggestion": 8216,
    " friendships": 8217,
    " burns": 8218,
    "Coco": 8219,
    " slapping": 8220,
    " closing": 8221,
    "Arrr": 8222,
    " invites": 8223,
    " belongings": 8224,
    " anticipation": 8225,
    " springing": 8226,
    " form": 8227,
    " erase": 8228,
    " cotton": 8229,
    " Stan": 8230,
    " twists": 8231,
    " rays": 8232,
    " snuggle": 8233,
    " forgives": 8234,
    " models": 8235,
    " shall": 8236,
    " massages": 8237,
    " humming": 8238,
    "onnie": 8239,
    " responded": 8240,
    " newfound": 8241,
    " ghosts": 8242,
    " expecting": 8243,
    " Shelly": 8244,
    " cheated": 8245,
    "Does": 8246,
    " Wooly": 8247,
    "Gigi": 8248,
    "otte": 8249,
    " traveling": 8250,
    " Ne": 8251,
    " cond": 8252,
    " battle": 8253,
    " although": 8254,
    "alloween": 8255,
    " mommies": 8256,
    " invitations": 8257,
    " carries": 8258,
    " aim": 8259,
    " refreshing": 8260,
    " presented": 8261,
    " conc": 8262,
    "hel": 8263,
    " twenty": 8264,
    " rowed": 8265,
    " Bumpy": 8266,
    "ots": 8267,
    " squir": 8268,
    "rie": 8269,
    "arlotte": 8270,
    " foxes": 8271,
    " cooper": 8272,
    " final": 8273,
    " duckling": 8274,
    " cafe": 8275,
    " Bibi": 8276,
    "Pip": 8277,
    " marshmallows": 8278,
    " clicked": 8279,
    " Zipper": 8280,
    "oor": 8281,
    " jets": 8282,
    " designing": 8283,
    " beaver": 8284,
    "five": 8285,
    " Muffin": 8286,
    " Halloween": 8287,
    " mugs": 8288,
    " Whoever": 8289,
    " drown": 8290,
    " Although": 8291,
    " tricycle": 8292,
    " picnics": 8293,
    " oppos": 8294,
    " convin": 8295,
    " Ruth": 8296,
    " Excited": 8297,
    "iens": 8298,
    " Cle": 8299,
    "po": 8300,
    " scoops": 8301,
    " congratul": 8302,
    " Pop": 8303,
    " Maddie": 8304,
    "Sadly": 8305,
    " \u2014": 8306,
    " travels": 8307,
    " aliens": 8308,
    " tests": 8309,
    " questioned": 8310,
    " Speed": 8311,
    "inted": 8312,
    " strips": 8313,
    " craft": 8314,
    "Near": 8315,
    "atty": 8316,
    "Mouse": 8317,
    "covered": 8318,
    " defe": 8319,
    " Flutter": 8320,
    " Bubba": 8321,
    "iri": 8322,
    "Br": 8323,
    " fights": 8324,
    "roken": 8325,
    "Ball": 8326,
    " opposite": 8327,
    " Biggy": 8328,
    "Hmm": 8329,
    "Find": 8330,
    "Elly": 8331,
    "Chloe": 8332,
    " Im": 8333,
    " rout": 8334,
    " grandfather": 8335,
    " encountered": 8336,
    " afford": 8337,
    " Never": 8338,
    " decl": 8339,
    "inch": 8340,
    " raising": 8341,
    "iment": 8342,
    " upside": 8343,
    " Vivi": 8344,
    "Meanwhile": 8345,
    "Jess": 8346,
    " flashed": 8347,
    " calmly": 8348,
    " Rita": 8349,
    " yawning": 8350,
    " sincere": 8351,
    " realizes": 8352,
    "aturday": 8353,
    "Trust": 8354,
    "Choo": 8355,
    " crystals": 8356,
    " buddy": 8357,
    " Samantha": 8358,
    " cupcakes": 8359,
    " buckled": 8360,
    "byes": 8361,
    "Both": 8362,
    " winners": 8363,
    " defin": 8364,
    "verse": 8365,
    "ris": 8366,
    "',": 8367,
    " weapons": 8368,
    " caw": 8369,
    "shadow": 8370,
    "Josh": 8371,
    " packages": 8372,
    " cheat": 8373,
    " Saturday": 8374,
    " sacks": 8375,
    " messes": 8376,
    " goodbyes": 8377,
    " coach": 8378,
    " attem": 8379,
    "quet": 8380,
    " convers": 8381,
    " Truck": 8382,
    " Flo": 8383,
    "val": 8384,
    " drift": 8385,
    " caps": 8386,
    " Mina": 8387,
    " Eva": 8388,
    "emies": 8389,
    " enemies": 8390,
    "asha": 8391,
    " yummiest": 8392,
    " scrub": 8393,
    " swallow": 8394,
    " returning": 8395,
    "rian": 8396,
    " admiration": 8397,
    " Softy": 8398,
    " Megan": 8399,
    "Since": 8400,
    " sprout": 8401,
    " Louise": 8402,
    " unable": 8403,
    " Playing": 8404,
    " Another": 8405,
    "ugging": 8406,
    "ooks": 8407,
    " sadder": 8408,
    " freezing": 8409,
    " brightest": 8410,
    " bless": 8411,
    " Yawn": 8412,
    " respon": 8413,
    " Man": 8414,
    "reverse": 8415,
    " response": 8416,
    " cosy": 8417,
    " Oh": 8418,
    " diamonds": 8419,
    " bride": 8420,
    "stalk": 8421,
    " reapp": 8422,
    " opport": 8423,
    " honking": 8424,
    " garbage": 8425,
    " whispering": 8426,
    " stretches": 8427,
    " prevented": 8428,
    "erk": 8429,
    "antastic": 8430,
    " whoever": 8431,
    " odd": 8432,
    " awful": 8433,
    " Gray": 8434,
    "alth": 8435,
    " weighs": 8436,
    " journeys": 8437,
    " awoke": 8438,
    "Brrr": 8439,
    " traps": 8440,
    " spices": 8441,
    " dragonfly": 8442,
    "off": 8443,
    " born": 8444,
    " reassured": 8445,
    " clip": 8446,
    "ivia": 8447,
    " stall": 8448,
    " beanstalk": 8449,
    " argum": 8450,
    " examining": 8451,
    " definitely": 8452,
    " beetles": 8453,
    " automobiles": 8454,
    " Maisy": 8455,
    "mine": 8456,
    "ici": 8457,
    "Hop": 8458,
    " visitors": 8459,
    " stuffing": 8460,
    " playdate": 8461,
    " washes": 8462,
    "cie": 8463,
    "broken": 8464,
    " wiser": 8465,
    " customer": 8466,
    "uper": 8467,
    "emma": 8468,
    "Rachel": 8469,
    " travelling": 8470,
    " Sofia": 8471,
    " Jolly": 8472,
    " Flop": 8473,
    "ouquet": 8474,
    " hairdress": 8475,
    " bouquet": 8476,
    " Nurse": 8477,
    "orse": 8478,
    "bble": 8479,
    ",'": 8480,
    " tumbled": 8481,
    " decoration": 8482,
    " campfire": 8483,
    " Elle": 8484,
    " honesty": 8485,
    " bud": 8486,
    "vy": 8487,
    "ebecca": 8488,
    "Only": 8489,
    " bomb": 8490,
    " welcoming": 8491,
    " offering": 8492,
    " wealth": 8493,
    " troubles": 8494,
    " occas": 8495,
    " increasing": 8496,
    " Ot": 8497,
    " Jax": 8498,
    " Hello": 8499,
    " loudest": 8500,
    " inspired": 8501,
    " type": 8502,
    " parted": 8503,
    " groan": 8504,
    " Chick": 8505,
    " Nutty": 8506,
    "irac": 8507,
    " whales": 8508,
    " Thunder": 8509,
    " Ricky": 8510,
    "yl": 8511,
    " declared": 8512,
    " correctly": 8513,
    "yler": 8514,
    "ooky": 8515,
    "fus": 8516,
    " beaks": 8517,
    " Quacky": 8518,
    "athan": 8519,
    " cleared": 8520,
    " cowboys": 8521,
    " nuzzled": 8522,
    " Dotty": 8523,
    " prizes": 8524,
    " exch": 8525,
    "Finny": 8526,
    " warmly": 8527,
    " Missile": 8528,
    " rewards": 8529,
    " obeyed": 8530,
    " customers": 8531,
    "Should": 8532,
    " sirens": 8533,
    " comforting": 8534,
    " Fel": 8535,
    "shaped": 8536,
    " connect": 8537,
    " Flappy": 8538,
    "match": 8539,
    " towns": 8540,
    " Magic": 8541,
    " Bingo": 8542,
    "elieve": 8543,
    " rely": 8544,
    " Vicky": 8545,
    "Honey": 8546,
    " trigger": 8547,
    " owns": 8548,
    " insisting": 8549,
    " fantastic": 8550,
    " bends": 8551,
    " Fe": 8552,
    " spoiling": 8553,
    " hairdresser": 8554,
    " surrendered": 8555,
    " supporting": 8556,
    " shares": 8557,
    " poses": 8558,
    " pipes": 8559,
    " cleans": 8560,
    "rench": 8561,
    "Sun": 8562,
    "Outside": 8563,
    "Julie": 8564,
    " wrinkled": 8565,
    " Cook": 8566,
    " chopped": 8567,
    " recorder": 8568,
    " moons": 8569,
    " beaming": 8570,
    "unes": 8571,
    "ellow": 8572,
    "Beth": 8573,
    " thanking": 8574,
    " snowy": 8575,
    " Wolf": 8576,
    " scurry": 8577,
    " experien": 8578,
    " enjoyable": 8579,
    " active": 8580,
    " coral": 8581,
    " Piggy": 8582,
    " environ": 8583,
    " dollar": 8584,
    " Kevin": 8585,
    "worm": 8586,
    "elope": 8587,
    " loc": 8588,
    "Je": 8589,
    " streamers": 8590,
    " Bub": 8591,
    "udged": 8592,
    " Patty": 8593,
    " Mother": 8594,
    " Zack": 8595,
    "inger": 8596,
    "Suzy": 8597,
    " examp": 8598,
    " shorts": 8599,
    " shooed": 8600,
    " environment": 8601,
    "Tree": 8602,
    " ill": 8603,
    " scent": 8604,
    " bruises": 8605,
    "uster": 8606,
    " grat": 8607,
    " Luc": 8608,
    "Bo": 8609,
    " hisses": 8610,
    " steering": 8611,
    " self": 8612,
    " plugged": 8613,
    " Elsa": 8614,
    " warrior": 8615,
    " visits": 8616,
    " exercises": 8617,
    "screen": 8618,
    "irl": 8619,
    "aptain": 8620,
    " dangers": 8621,
    " cuddles": 8622,
    " Rel": 8623,
    " Min": 8624,
    " Ar": 8625,
    " unfortunately": 8626,
    " squished": 8627,
    " signing": 8628,
    " Light": 8629,
    "bee": 8630,
    "Ray": 8631,
    " pilots": 8632,
    " disappoint": 8633,
    "munk": 8634,
    " gratitude": 8635,
    " applauding": 8636,
    " providing": 8637,
    " Moppy": 8638,
    "alf": 8639,
    " tickles": 8640,
    " ting": 8641,
    " Rub": 8642,
    "Grow": 8643,
    " storms": 8644,
    " nights": 8645,
    " jud": 8646,
    " convinced": 8647,
    " badger": 8648,
    " Elsie": 8649,
    " youn": 8650,
    " responsib": 8651,
    " choosing": 8652,
    " Kelly": 8653,
    "Joy": 8654,
    " youngest": 8655,
    " nearest": 8656,
    " brains": 8657,
    " activity": 8658,
    "Abby": 8659,
    " exploded": 8660,
    " coughed": 8661,
    " arranged": 8662,
    "Claire": 8663,
    " rewarding": 8664,
    " Tre": 8665,
    " Fly": 8666,
    "pr": 8667,
    "good": 8668,
    "erpiece": 8669,
    " sunscreen": 8670,
    " peep": 8671,
    " bond": 8672,
    " Floppy": 8673,
    "asers": 8674,
    "Mon": 8675,
    " Tweety": 8676,
    " Sweet": 8677,
    " Katy": 8678,
    " Joan": 8679,
    " Sal": 8680,
    "ilities": 8681,
    " annoying": 8682,
    "sn": 8683,
    " soapy": 8684,
    "meow": 8685,
    "Splash": 8686,
    " rails": 8687,
    " laces": 8688,
    " threads": 8689,
    " tapping": 8690,
    " offic": 8691,
    " appreciated": 8692,
    " Pine": 8693,
    " Phil": 8694,
    "boards": 8695,
    " weighing": 8696,
    " heartbroken": 8697,
    " emerged": 8698,
    " congratulated": 8699,
    " Pick": 8700,
    "Danger": 8701,
    " tin": 8702,
    " Sil": 8703,
    " crocodiles": 8704,
    " clerk": 8705,
    " scram": 8706,
    " attempt": 8707,
    " Nancy": 8708,
    "water": 8709,
    "Ahoy": 8710,
    " snug": 8711,
    " messed": 8712,
    " example": 8713,
    " dial": 8714,
    " Kay": 8715,
    " Any": 8716,
    "Momma": 8717,
    " hooks": 8718,
    " Jonny": 8719,
    " tops": 8720,
    " chipmunk": 8721,
    " soot": 8722,
    " guarding": 8723,
    " bathed": 8724,
    " manager": 8725,
    " Tippy": 8726,
    "ortunately": 8727,
    " Microscope": 8728,
    "Friends": 8729,
    " De": 8730,
    "etah": 8731,
    "Snowy": 8732,
    " masterpiece": 8733,
    " Baa": 8734,
    " erasers": 8735,
    " tips": 8736,
    " finishes": 8737,
    " fet": 8738,
    " common": 8739,
    " Tomorrow": 8740,
    "mbers": 8741,
    " trotted": 8742,
    " nibbled": 8743,
    " members": 8744,
    " digs": 8745,
    "People": 8746,
    " kinder": 8747,
    " cheetah": 8748,
    " particularly": 8749,
    " chews": 8750,
    " blond": 8751,
    "ircle": 8752,
    " rips": 8753,
    " beast": 8754,
    "Lizzy": 8755,
    " argument": 8756,
    "ative": 8757,
    " faith": 8758,
    " Helping": 8759,
    " earned": 8760,
    "Anne": 8761,
    " observing": 8762,
    " forgiveness": 8763,
    " Joke": 8764,
    " Cici": 8765,
    "chievous": 8766,
    " instantly": 8767,
    " fishes": 8768,
    " experienced": 8769,
    " curl": 8770,
    " cheaper": 8771,
    " Jumpy": 8772,
    "Rosie": 8773,
    " mischievous": 8774,
    " generosity": 8775,
    " cages": 8776,
    " Twist": 8777,
    "Gr": 8778,
    "Baa": 8779,
    " meowing": 8780,
    " foam": 8781,
    "mered": 8782,
    "Cindy": 8783,
    " stores": 8784,
    " grandd": 8785,
    " Ag": 8786,
    "etchup": 8787,
    " mattered": 8788,
    " teles": 8789,
    " passes": 8790,
    " limp": 8791,
    "Sque": 8792,
    " sleeps": 8793,
    "iolet": 8794,
    " breaths": 8795,
    "ordinary": 8796,
    "ettle": 8797,
    "ending": 8798,
    " trans": 8799,
    " rin": 8800,
    " gasps": 8801,
    " Freddie": 8802,
    "Got": 8803,
    " rumbling": 8804,
    " hatch": 8805,
    " Momma": 8806,
    "over": 8807,
    "abra": 8808,
    " grassho": 8809,
    " accomplished": 8810,
    " Hopper": 8811,
    "acing": 8812,
    " thump": 8813,
    " telescope": 8814,
    " strum": 8815,
    " smartest": 8816,
    " mats": 8817,
    " whined": 8818,
    " moat": 8819,
    "Gina": 8820,
    " scrambled": 8821,
    " jugg": 8822,
    " farmers": 8823,
    " Ice": 8824,
    " drip": 8825,
    "Robbie": 8826,
    " syrup": 8827,
    " gardens": 8828,
    " collapsed": 8829,
    " angrily": 8830,
    " More": 8831,
    "ouraged": 8832,
    "idey": 8833,
    " vegg": 8834,
    " styles": 8835,
    " forests": 8836,
    " experiences": 8837,
    " discoveries": 8838,
    "hole": 8839,
    " tor": 8840,
    " medals": 8841,
    " types": 8842,
    " otters": 8843,
    " meaning": 8844,
    " faint": 8845,
    " conqu": 8846,
    " Does": 8847,
    "pit": 8848,
    "adabra": 8849,
    "acock": 8850,
    " snapping": 8851,
    " hardest": 8852,
    " fif": 8853,
    "ering": 8854,
    " movements": 8855,
    " expression": 8856,
    " surv": 8857,
    " chilly": 8858,
    " bubbly": 8859,
    " affect": 8860,
    "Pinky": 8861,
    " vests": 8862,
    " unfair": 8863,
    " court": 8864,
    "Whenever": 8865,
    " toothbrush": 8866,
    " scores": 8867,
    " extraordinary": 8868,
    "Never": 8869,
    " attitude": 8870,
    " vibr": 8871,
    " horri": 8872,
    " bluebird": 8873,
    " Monkey": 8874,
    "mel": 8875,
    "lls": 8876,
    "Mo": 8877,
    " spears": 8878,
    " ketchup": 8879,
    " Berry": 8880,
    "Mother": 8881,
    " sooner": 8882,
    " grasshopper": 8883,
    " behaviour": 8884,
    " patches": 8885,
    " habit": 8886,
    "yd": 8887,
    "erts": 8888,
    "Karen": 8889,
    " pokes": 8890,
    " momma": 8891,
    " afar": 8892,
    " Ashley": 8893,
    "lo": 8894,
    "ieves": 8895,
    "Jacob": 8896,
    " thicker": 8897,
    " scri": 8898,
    " Friend": 8899,
    "Jon": 8900,
    " squeezes": 8901,
    " slithered": 8902,
    " shrunk": 8903,
    " classmates": 8904,
    " Terry": 8905,
    " Fle": 8906,
    " icky": 8907,
    " prickly": 8908,
    " glittering": 8909,
    " expert": 8910,
    " topp": 8911,
    " kneeling": 8912,
    " announced": 8913,
    " Super": 8914,
    " Riri": 8915,
    "elling": 8916,
    " peacock": 8917,
    " marking": 8918,
    "ctric": 8919,
    " costs": 8920,
    " Cally": 8921,
    " Achoo": 8922,
    " zigzags": 8923,
    " watermel": 8924,
    " thieves": 8925,
    " skirts": 8926,
    " jumper": 8927,
    " hood": 8928,
    " acts": 8929,
    " Zog": 8930,
    " App": 8931,
    " wolves": 8932,
    " Swim": 8933,
    " Cloud": 8934,
    "Papa": 8935,
    " thumbs": 8936,
    " squeaky": 8937,
    " concer": 8938,
    " cocoon": 8939,
    " woodcut": 8940,
    " boards": 8941,
    " Eliza": 8942,
    " Becky": 8943,
    " servant": 8944,
    "idence": 8945,
    "affle": 8946,
    " cheating": 8947,
    " Jason": 8948,
    "bu": 8949,
    " trading": 8950,
    " raking": 8951,
    "cat": 8952,
    "Jessie": 8953,
    " explaining": 8954,
    " Eric": 8955,
    "rick": 8956,
    " tidied": 8957,
    " biscuit": 8958,
    " lunchtime": 8959,
    " luckily": 8960,
    " Ac": 8961,
    "anced": 8962,
    "Frog": 8963,
    " Puffy": 8964,
    " spilling": 8965,
    " Day": 8966,
    "Fire": 8967,
    " transform": 8968,
    " desserts": 8969,
    " Use": 8970,
    " Maddy": 8971,
    " Daniel": 8972,
    " Animal": 8973,
    "\u2026": 8974,
    "ror": 8975,
    " Pig": 8976,
    " Mine": 8977,
    " Still": 8978,
    " Gill": 8979,
    "rough": 8980,
    "amma": 8981,
    " messages": 8982,
    " mirac": 8983,
    " Captain": 8984,
    "idy": 8985,
    " windowsill": 8986,
    " chill": 8987,
    " beating": 8988,
    " Tammy": 8989,
    " Lung": 8990,
    " Gilly": 8991,
    "oot": 8992,
    " seeking": 8993,
    " actor": 8994,
    " Rainbow": 8995,
    " Lina": 8996,
    " William": 8997,
    "sess": 8998,
    "its": 8999,
    " Math": 9000,
    "pril": 9001,
    "Any": 9002,
    " foreshadow": 9003,
    "war": 9004,
    "acles": 9005,
    "Bluey": 9006,
    " leans": 9007,
    " Step": 9008,
    " Pinch": 9009,
    " Hi": 9010,
    "racadabra": 9011,
    "Freeze": 9012,
    "Bounce": 9013,
    " watermelon": 9014,
    " hissing": 9015,
    " flashing": 9016,
    " dev": 9017,
    " cloths": 9018,
    " Tiger": 9019,
    " Monster": 9020,
    " Frankie": 9021,
    " winding": 9022,
    " positive": 9023,
    " funn": 9024,
    " discouraged": 9025,
    " Wil": 9026,
    "pop": 9027,
    " woodcutter": 9028,
    " forts": 9029,
    " dripped": 9030,
    " compete": 9031,
    " teapot": 9032,
    " pressing": 9033,
    " disagreeing": 9034,
    "icking": 9035,
    " glimmering": 9036,
    " veggies": 9037,
    " trusts": 9038,
    " tidying": 9039,
    " kangaroos": 9040,
    " Peep": 9041,
    " tempted": 9042,
    " landing": 9043,
    " Flora": 9044,
    " dock": 9045,
    " shallow": 9046,
    " overw": 9047,
    " formed": 9048,
    "lers": 9049,
    " rack": 9050,
    " fade": 9051,
    " Tooth": 9052,
    "flowers": 9053,
    " worst": 9054,
    " electric": 9055,
    " cops": 9056,
    "eling": 9057,
    "Nothing": 9058,
    " apology": 9059,
    "iving": 9060,
    "creams": 9061,
    "ai": 9062,
    " sleds": 9063,
    " Silver": 9064,
    " Life": 9065,
    "upid": 9066,
    " comets": 9067,
    " ass": 9068,
    "Owl": 9069,
    " sav": 9070,
    " Shark": 9071,
    " Mag": 9072,
    " Jelly": 9073,
    "Bug": 9074,
    " situations": 9075,
    " papa": 9076,
    " officers": 9077,
    " conversation": 9078,
    " 4": 9079,
    "Rain": 9080,
    " Roger": 9081,
    " Charlotte": 9082,
    "storm": 9083,
    "aye": 9084,
    " suns": 9085,
    " ding": 9086,
    "\u201d,": 9087,
    " zips": 9088,
    " structures": 9089,
    " scurrying": 9090,
    " pizzas": 9091,
    " overwhel": 9092,
    " miller": 9093,
    " Butter": 9094,
    " granddaughter": 9095,
    " foggy": 9096,
    " Olivia": 9097,
    " Hurry": 9098,
    " Amber": 9099,
    "Zoe": 9100,
    " Janey": 9101,
    " webs": 9102,
    " deserved": 9103,
    "Rabbit": 9104,
    " opportunity": 9105,
    " cubs": 9106,
    " Yummy": 9107,
    " Spidey": 9108,
    " Sasha": 9109,
    " Mixie": 9110,
    " Buster": 9111,
    " snorted": 9112,
    " rhino": 9113,
    " differences": 9114,
    " Gold": 9115,
    " quacking": 9116,
    " Tell": 9117,
    "ifully": 9118,
    "ended": 9119,
    "Fifi": 9120,
    " heaven": 9121,
    " Birds": 9122,
    " unlo": 9123,
    " levers": 9124,
    " inchworm": 9125,
    " inter": 9126,
    " approach": 9127,
    " Tyler": 9128,
    "ssess": 9129,
    " seagulls": 9130,
    " possess": 9131,
    " cooperate": 9132,
    " Rufus": 9133,
    " Felix": 9134,
    " Boom": 9135,
    "welcome": 9136,
    "sers": 9137,
    "ragon": 9138,
    "of": 9139,
    "?\u201d.": 9140,
    "andra": 9141,
    " pose": 9142,
    " disappointment": 9143,
    " Smoke": 9144,
    "ocular": 9145,
    " speaks": 9146,
    " sneaks": 9147,
    "snap": 9148,
    " binocular": 9149,
    " artwork": 9150,
    " surfed": 9151,
    " scowl": 9152,
    " answering": 9153,
    " Snake": 9154,
    " shortcut": 9155,
    " Grand": 9156,
    " sipped": 9157,
    " robin": 9158,
    " dep": 9159,
    "Climb": 9160,
    " arrest": 9161,
    " Inky": 9162,
    "ssy": 9163,
    " unwrapped": 9164,
    " ribbit": 9165,
    " reun": 9166,
    " amused": 9167,
    " Amanda": 9168,
    "ugar": 9169,
    " repeats": 9170,
    " pepperoni": 9171,
    " applause": 9172,
    " keyhole": 9173,
    " checkout": 9174,
    " Mae": 9175,
    " Cars": 9176,
    "Lia": 9177,
    "Deal": 9178,
    " visitor": 9179,
    " striking": 9180,
    " puppets": 9181,
    " paddling": 9182,
    "Eat": 9183,
    " unz": 9184,
    " croaked": 9185,
    " attacked": 9186,
    " Circle": 9187,
    " Brian": 9188,
    "orsie": 9189,
    " spooky": 9190,
    " Otto": 9191,
    " Gus": 9192,
    "Each": 9193,
    " groaned": 9194,
    " beautifully": 9195,
    " Jean": 9196,
    "gar": 9197,
    "cidents": 9198,
    " swimsuits": 9199,
    " consider": 9200,
    " checking": 9201,
    "uses": 9202,
    " Yellow": 9203,
    "jest": 9204,
    " waters": 9205,
    " groom": 9206,
    " Squeak": 9207,
    " Slinky": 9208,
    "yle": 9209,
    " invent": 9210,
    "Luke": 9211,
    " nets": 9212,
    " exams": 9213,
    "otion": 9214,
    "ets": 9215,
    " drying": 9216,
    " Rebecca": 9217,
    "udy": 9218,
    "artin": 9219,
    "agine": 9220,
    " shrugs": 9221,
    " lump": 9222,
    " Auntie": 9223,
    "sie": 9224,
    "lest": 9225,
    " sobbing": 9226,
    " shyly": 9227,
    " shoots": 9228,
    " honks": 9229,
    " heels": 9230,
    " cheerfully": 9231,
    " Since": 9232,
    "ili": 9233,
    "hny": 9234,
    "esses": 9235,
    " shh": 9236,
    " chin": 9237,
    "anish": 9238,
    " whimpered": 9239,
    " healthier": 9240,
    " hangs": 9241,
    "icious": 9242,
    "Milo": 9243,
    " Mus": 9244,
    " caterpillars": 9245,
    "izzes": 9246,
    "Slowly": 9247,
    " squinted": 9248,
    " magnifying": 9249,
    " fries": 9250,
    " Ratty": 9251,
    " fascinating": 9252,
    " blamed": 9253,
    " Find": 9254,
    "ulpture": 9255,
    "ching": 9256,
    " sculpture": 9257,
    " frustration": 9258,
    " Tip": 9259,
    "ouched": 9260,
    " shimmering": 9261,
    " Penelope": 9262,
    " poss": 9263,
    " Peace": 9264,
    "edic": 9265,
    "Sharing": 9266,
    " suck": 9267,
    " pleas": 9268,
    " numbered": 9269,
    " nibble": 9270,
    " Waffle": 9271,
    "othy": 9272,
    "ibbles": 9273,
    "ellie": 9274,
    "amil": 9275,
    " flowing": 9276,
    " baa": 9277,
    "hings": 9278,
    "Pepper": 9279,
    " raked": 9280,
    " grumbled": 9281,
    " Off": 9282,
    "that": 9283,
    "Bubbles": 9284,
    " builder": 9285,
    "racted": 9286,
    "eat": 9287,
    " swaying": 9288,
    " petting": 9289,
    " guards": 9290,
    " facing": 9291,
    " Woolly": 9292,
    " sprinkle": 9293,
    " mysteries": 9294,
    " details": 9295,
    " Har": 9296,
    "sey": 9297,
    " snort": 9298,
    " flock": 9299,
    " enemy": 9300,
    " Boat": 9301,
    " textures": 9302,
    " tablet": 9303,
    " goodies": 9304,
    " Curious": 9305,
    " Barry": 9306,
    "Yesterday": 9307,
    " wig": 9308,
    " popping": 9309,
    " wildflowers": 9310,
    " stacks": 9311,
    " marve": 9312,
    " fans": 9313,
    " crops": 9314,
    " countries": 9315,
    " Jenn": 9316,
    " Gracie": 9317,
    "how": 9318,
    " knobs": 9319,
    " Tessa": 9320,
    " Seeing": 9321,
    " local": 9322,
    " bushy": 9323,
    " stew": 9324,
    " peeped": 9325,
    " hunting": 9326,
    " drowned": 9327,
    " bowing": 9328,
    " binoculars": 9329,
    " angrier": 9330,
    " Bubu": 9331,
    " maps": 9332,
    " Match": 9333,
    " quizzes": 9334,
    " niece": 9335,
    " moonlight": 9336,
    " Glow": 9337,
    " outfits": 9338,
    " Johnson": 9339,
    " Deal": 9340,
    "OO": 9341,
    " whoosh": 9342,
    " weaker": 9343,
    " wrench": 9344,
    " mindful": 9345,
    " crowded": 9346,
    "cycles": 9347,
    "Squ": 9348,
    " endings": 9349,
    " Beef": 9350,
    "oll": 9351,
    "Im": 9352,
    " property": 9353,
    " hesitation": 9354,
    " flashes": 9355,
    "amiliar": 9356,
    " unless": 9357,
    " imaginations": 9358,
    " fond": 9359,
    " carts": 9360,
    " boil": 9361,
    " ability": 9362,
    " Oxy": 9363,
    " Andrew": 9364,
    "getic": 9365,
    " glared": 9366,
    " Right": 9367,
    " Accidents": 9368,
    "stand": 9369,
    " unfamiliar": 9370,
    " spaces": 9371,
    " microw": 9372,
    " knit": 9373,
    " haven": 9374,
    " folds": 9375,
    "ths": 9376,
    "saw": 9377,
    "Tuna": 9378,
    " responsibility": 9379,
    " dirtier": 9380,
    " Pet": 9381,
    "bank": 9382,
    " pouch": 9383,
    " microwave": 9384,
    " desks": 9385,
    "ibly": 9386,
    "Bless": 9387,
    " cracker": 9388,
    "rnie": 9389,
    " swapped": 9390,
    " member": 9391,
    " date": 9392,
    " aston": 9393,
    " Oxygen": 9394,
    " Ring": 9395,
    " Ravi": 9396,
    "lt": 9397,
    "free": 9398,
    "Want": 9399,
    "Cra": 9400,
    " whine": 9401,
    " softened": 9402,
    " rebu": 9403,
    " doorstep": 9404,
    " disappearing": 9405,
    " Peggy": 9406,
    " Helen": 9407,
    " Bun": 9408,
    " quacks": 9409,
    " natur": 9410,
    " Chip": 9411,
    "scar": 9412,
    " writer": 9413,
    " listener": 9414,
    " Too": 9415,
    " Fix": 9416,
    " priv": 9417,
    " blushed": 9418,
    " Spicy": 9419,
    "venir": 9420,
    " palms": 9421,
    " noticing": 9422,
    "upt": 9423,
    "repe": 9424,
    "poison": 9425,
    " souvenir": 9426,
    " Past": 9427,
    "repeat": 9428,
    "entr": 9429,
    " laws": 9430,
    " disaster": 9431,
    " Tra": 9432,
    " Res": 9433,
    " Gabby": 9434,
    "str": 9435,
    "reg": 9436,
    "endant": 9437,
    "Robby": 9438,
    " phones": 9439,
    "ala": 9440,
    "Ava": 9441,
    " confidence": 9442,
    " Li": 9443,
    " Coal": 9444,
    " Cut": 9445,
    " Bert": 9446,
    " timid": 9447,
    " stirs": 9448,
    " overwhelmed": 9449,
    "ingly": 9450,
    "Being": 9451,
    " mayor": 9452,
    " flick": 9453,
    "guess": 9454,
    "asmine": 9455,
    "Che": 9456,
    " tugging": 9457,
    " Pretty": 9458,
    " Mole": 9459,
    "lor": 9460,
    " untangle": 9461,
    " satisfa": 9462,
    " owls": 9463,
    " mailing": 9464,
    " injured": 9465,
    "Whose": 9466,
    " satisfaction": 9467,
    " concentr": 9468,
    " White": 9469,
    " Immediately": 9470,
    " Books": 9471,
    "Fly": 9472,
    " March": 9473,
    " Animals": 9474,
    "mers": 9475,
    "Sc": 9476,
    "Mittens": 9477,
    " lim": 9478,
    " Eat": 9479,
    "this": 9480,
    "Mabel": 9481,
    " prank": 9482,
    " Wonder": 9483,
    " Nora": 9484,
    " Bonnie": 9485,
    "Wiggly": 9486,
    " hooves": 9487,
    " Triangle": 9488,
    " Run": 9489,
    " Pot": 9490,
    " Melissa": 9491,
    " Kn": 9492,
    "well": 9493,
    "Jeff": 9494,
    " fixer": 9495,
    " Startled": 9496,
    " Sir": 9497,
    " Clean": 9498,
    " Close": 9499,
    "icate": 9500,
    " snar": 9501,
    " clut": 9502,
    "lish": 9503,
    "bling": 9504,
    "Excited": 9505,
    " skies": 9506,
    " instrument": 9507,
    " Trucky": 9508,
    " capt": 9509,
    " Matilda": 9510,
    " Horsie": 9511,
    " Faye": 9512,
    "adually": 9513,
    " disagre": 9514,
    "iky": 9515,
    " wriggled": 9516,
    " stains": 9517,
    " rinse": 9518,
    " pecks": 9519,
    " creak": 9520,
    " Sleepy": 9521,
    "Susan": 9522,
    " shave": 9523,
    " bumping": 9524,
    " Sing": 9525,
    " Icy": 9526,
    " Heli": 9527,
    " Crabby": 9528,
    "ulf": 9529,
    " swirl": 9530,
    " ruff": 9531,
    " bending": 9532,
    "cessary": 9533,
    "Playing": 9534,
    "Close": 9535,
    " sandpit": 9536,
    " exploration": 9537,
    " chatted": 9538,
    " Scissors": 9539,
    "Make": 9540,
    " rods": 9541,
    " lever": 9542,
    " facts": 9543,
    "Sm": 9544,
    " attaching": 9545,
    " Candy": 9546,
    " fooled": 9547,
    " burger": 9548,
    " Bro": 9549,
    " glows": 9550,
    " concerned": 9551,
    " clearly": 9552,
    "Maya": 9553,
    " salon": 9554,
    " reversing": 9555,
    " lava": 9556,
    " compan": 9557,
    " certainly": 9558,
    "els": 9559,
    "Wally": 9560,
    " smelt": 9561,
    " motorcycles": 9562,
    " fetched": 9563,
    " circ": 9564,
    " troll": 9565,
    " tunes": 9566,
    " sometime": 9567,
    " prod": 9568,
    " oldest": 9569,
    " fireflies": 9570,
    "Ring": 9571,
    " kissing": 9572,
    " challenges": 9573,
    " blonde": 9574,
    "Kayla": 9575,
    " warmed": 9576,
    " Bobbie": 9577,
    " unlocking": 9578,
    " natural": 9579,
    " differently": 9580,
    " bound": 9581,
    " Lots": 9582,
    "urple": 9583,
    "sa": 9584,
    "erg": 9585,
    "Tara": 9586,
    "Dino": 9587,
    "Abracadabra": 9588,
    " rubb": 9589,
    " riverbank": 9590,
    " detect": 9591,
    " cutter": 9592,
    " cupcake": 9593,
    " conquered": 9594,
    " hates": 9595,
    " alley": 9596,
    " Flap": 9597,
    "sorry": 9598,
    " swirls": 9599,
    " sends": 9600,
    " realise": 9601,
    " Open": 9602,
    " Flopsy": 9603,
    "Julia": 9604,
    "Isn": 9605,
    " wiggling": 9606,
    " sensation": 9607,
    " munched": 9608,
    " banging": 9609,
    " Cammy": 9610,
    " toppings": 9611,
    " hippos": 9612,
    " fist": 9613,
    " clips": 9614,
    " Reliable": 9615,
    "Doctor": 9616,
    " swayed": 9617,
    " stings": 9618,
    " robe": 9619,
    " miracle": 9620,
    " halves": 9621,
    " brakes": 9622,
    " Greeny": 9623,
    "Hope": 9624,
    "Fish": 9625,
    " survive": 9626,
    " ostriches": 9627,
    " Pink": 9628,
    " Climb": 9629,
    "ula": 9630,
    "keepers": 9631,
    "bert": 9632,
    "Michael": 9633,
    " torto": 9634,
    " otherwise": 9635,
    " embra": 9636,
    " crushed": 9637,
    " bubbling": 9638,
    " tents": 9639,
    " Looking": 9640,
    "ani": 9641,
    " repairing": 9642,
    " Of": 9643,
    " vinegar": 9644,
    " stretchy": 9645,
    " rubbish": 9646,
    " lizards": 9647,
    " Working": 9648,
    " Flicker": 9649,
    " passenger": 9650,
    " Ed": 9651,
    "aste": 9652,
    "Many": 9653,
    " vibrant": 9654,
    " tortoise": 9655,
    " pounced": 9656,
    " Which": 9657,
    "Suzie": 9658,
    " scene": 9659,
    " Rh": 9660,
    " Grump": 9661,
    "gr": 9662,
    " mooed": 9663,
    " glided": 9664,
    " desperately": 9665,
    " bas": 9666,
    " snip": 9667,
    " poop": 9668,
    " majest": 9669,
    " intently": 9670,
    " copied": 9671,
    " calmer": 9672,
    " Sundays": 9673,
    " Lightning": 9674,
    "rap": 9675,
    "net": 9676,
    " woken": 9677,
    " twel": 9678,
    " rags": 9679,
    " judges": 9680,
    " joyfully": 9681,
    " jing": 9682,
    " coolest": 9683,
    " Per": 9684,
    "smelling": 9685,
    " lectures": 9686,
    " glob": 9687,
    " Jody": 9688,
    "lyn": 9689,
    "isible": 9690,
    " hips": 9691,
    " cousins": 9692,
    " astonished": 9693,
    " capes": 9694,
    " Outside": 9695,
    " Lu": 9696,
    "uno": 9697,
    "Eww": 9698,
    " successfully": 9699,
    " speaker": 9700,
    " reunited": 9701,
    " invisible": 9702,
    " guesses": 9703,
    " gooey": 9704,
    " arrives": 9705,
    "why": 9706,
    " twelve": 9707,
    " bats": 9708,
    "urity": 9709,
    "Mikey": 9710,
    " goodness": 9711,
    " computers": 9712,
    " chatting": 9713,
    " Carla": 9714,
    "nded": 9715,
    "mie": 9716,
    " stacking": 9717,
    " snowflake": 9718,
    "istory": 9719,
    " reappeared": 9720,
    " racer": 9721,
    " pounds": 9722,
    " parks": 9723,
    " desperate": 9724,
    " companion": 9725,
    " commun": 9726,
    "bed": 9727,
    "Zigzag": 9728,
    "Ol": 9729,
    " luckiest": 9730,
    " level": 9731,
    " dou": 9732,
    " ank": 9733,
    " tale": 9734,
    " stomachs": 9735,
    " sells": 9736,
    " gall": 9737,
    " dumb": 9738,
    " crickets": 9739,
    " Sugar": 9740,
    "iggles": 9741,
    "Nick": 9742,
    " winds": 9743,
    " sus": 9744,
    " gates": 9745,
    " disobeyed": 9746,
    " disagreement": 9747,
    " Steven": 9748,
    "hile": 9749,
    "More": 9750,
    " pearls": 9751,
    " hoses": 9752,
    " crisp": 9753,
    " awhile": 9754,
    " Whee": 9755,
    "ites": 9756,
    "Lou": 9757,
    " soda": 9758,
    " popsic": 9759,
    " loyalty": 9760,
    " Orange": 9761,
    "Linda": 9762,
    " tongues": 9763,
    " Rosa": 9764,
    "usion": 9765,
    "rent": 9766,
    " rider": 9767,
    " CD": 9768,
    "Ooh": 9769,
    " Black": 9770,
    "pan": 9771,
    " surely": 9772,
    " abo": 9773,
    " Law": 9774,
    " Annabelle": 9775,
    "des": 9776,
    "colored": 9777,
    " occasion": 9778,
    " bund": 9779,
    "rum": 9780,
    "izza": 9781,
    "dog": 9782,
    "!\u2019": 9783,
    " stun": 9784,
    " guitars": 9785,
    " chicks": 9786,
    "chief": 9787,
    " separating": 9788,
    " seashe": 9789,
    " rebuild": 9790,
    " intelligence": 9791,
    " alligators": 9792,
    " aboard": 9793,
    " Raven": 9794,
    " Iron": 9795,
    " April": 9796,
    "Found": 9797,
    " croak": 9798,
    " creep": 9799,
    " Winky": 9800,
    " Violet": 9801,
    "aids": 9802,
    "Something": 9803,
    "Catch": 9804,
    " learner": 9805,
    " caution": 9806,
    " cuc": 9807,
    " Old": 9808,
    " Care": 9809,
    "solut": 9810,
    " whines": 9811,
    " spiky": 9812,
    " revealing": 9813,
    " rins": 9814,
    " Uni": 9815,
    "working": 9816,
    " tickling": 9817,
    " escap": 9818,
    " Settle": 9819,
    " underwater": 9820,
    " globe": 9821,
    " crouched": 9822,
    " Roar": 9823,
    " Coby": 9824,
    " Ba": 9825,
    "udge": 9826,
    "everse": 9827,
    "!'.": 9828,
    " prog": 9829,
    " blooms": 9830,
    " appearance": 9831,
    " ''": 9832,
    "urricane": 9833,
    "stop": 9834,
    "seph": 9835,
    "ifer": 9836,
    "fived": 9837,
    "Jan": 9838,
    " strokes": 9839,
    " leaking": 9840,
    " hatched": 9841,
    " guardian": 9842,
    " Socky": 9843,
    "ealing": 9844,
    "arning": 9845,
    " zookeepers": 9846,
    " tant": 9847,
    " routine": 9848,
    " persistence": 9849,
    " doves": 9850,
    "Snap": 9851,
    "Sleep": 9852,
    "Chicky": 9853,
    " taps": 9854,
    " squashes": 9855,
    " quilt": 9856,
    " painful": 9857,
    " lighting": 9858,
    " blame": 9859,
    " admit": 9860,
    "Toys": 9861,
    "Ahh": 9862,
    " tempting": 9863,
    " shattered": 9864,
    " ripp": 9865,
    " mold": 9866,
    " deeply": 9867,
    " Puff": 9868,
    "ggles": 9869,
    "Three": 9870,
    "Ralph": 9871,
    "Matt": 9872,
    " throne": 9873,
    " squirted": 9874,
    " security": 9875,
    " peeks": 9876,
    " electricity": 9877,
    " centre": 9878,
    " burgers": 9879,
    " Spin": 9880,
    "emon": 9881,
    "con": 9882,
    " realizing": 9883,
    " cooks": 9884,
    " allowing": 9885,
    " Liam": 9886,
    "ushes": 9887,
    "orth": 9888,
    "oss": 9889,
    "cker": 9890,
    "Jessica": 9891,
    " lar": 9892,
    " exchange": 9893,
    " chopping": 9894,
    "Share": 9895,
    "Sophia": 9896,
    " sweetly": 9897,
    " Race": 9898,
    " Quickly": 9899,
    " Alf": 9900,
    "vering": 9901,
    " sweeter": 9902,
    " rinsed": 9903,
    " glittered": 9904,
    "isapp": 9905,
    "Zero": 9906,
    "Sw": 9907,
    " melts": 9908,
    " melody": 9909,
    " goggles": 9910,
    " furious": 9911,
    " energetic": 9912,
    " defeated": 9913,
    " builders": 9914,
    " Inch": 9915,
    "asy": 9916,
    " waded": 9917,
    " tantrum": 9918,
    " sniffled": 9919,
    " chooses": 9920,
    " Otherwise": 9921,
    " Cats": 9922,
    " Comet": 9923,
    " container": 9924,
    " competing": 9925,
    " Giant": 9926,
    "eremy": 9927,
    "bang": 9928,
    " Sharp": 9929,
    " Mila": 9930,
    "arted": 9931,
    " undone": 9932,
    " seriously": 9933,
    " protection": 9934,
    " larger": 9935,
    " lull": 9936,
    " hudd": 9937,
    " attempts": 9938,
    " Rara": 9939,
    " Park": 9940,
    " Duke": 9941,
    "Shoo": 9942,
    "Lizzie": 9943,
    " tossing": 9944,
    " helicopters": 9945,
    " cooed": 9946,
    " cluck": 9947,
    " buckles": 9948,
    " Whale": 9949,
    " Pinchy": 9950,
    " Cher": 9951,
    "Sweet": 9952,
    " Tears": 9953,
    " Smo": 9954,
    " Over": 9955,
    "solutely": 9956,
    "Still": 9957,
    "Squeaky": 9958,
    " hummed": 9959,
    " dedic": 9960,
    " courageous": 9961,
    " Ma": 9962,
    " Hor": 9963,
    " Din": 9964,
    "Maddy": 9965,
    "Everything": 9966,
    "Curious": 9967,
    " racers": 9968,
    " patients": 9969,
    " muster": 9970,
    " god": 9971,
    " deserves": 9972,
    " aloud": 9973,
    " Things": 9974,
    "aps": 9975,
    "Use": 9976,
    " Squee": 9977,
    " Dragon": 9978,
    " tours": 9979,
    " meets": 9980,
    " marvel": 9981,
    " Rusty": 9982,
    " Liza": 9983,
    " Jet": 9984,
    "Froggy": 9985,
    " wrapper": 9986,
    " Reddy": 9987,
    " Hops": 9988,
    " Crusty": 9989,
    " whiskers": 9990,
    " nicest": 9991,
    " improving": 9992,
    " booth": 9993,
    " Land": 9994,
    "Surrender": 9995,
    "Rocky": 9996,
    " meadows": 9997,
    " imaginary": 9998,
    " bold": 9999
}